{
  "version": "1.0",
  "truncation": null,
  "padding": null,
  "added_tokens": [
    {
      "id": 0,
      "content": "<|endoftext|>",
      "single_word": false,
      "lstrip": false,
      "rstrip": false,
      "normalized": false,
      "special": true
    }
  ],
  "normalizer": null,
  "pre_tokenizer": {
    "type": "ByteLevel",
    "add_prefix_space": false,
    "trim_offsets": true,
    "use_regex": true
  },
  "post_processor": {
    "type": "ByteLevel",
    "add_prefix_space": true,
    "trim_offsets": false,
    "use_regex": true
  },
  "decoder": {
    "type": "ByteLevel",
    "add_prefix_space": true,
    "trim_offsets": true,
    "use_regex": true
  },
  "model": {
    "type": "BPE",
    "dropout": null,
    "unk_token": null,
    "continuing_subword_prefix": null,
    "end_of_word_suffix": null,
    "fuse_unk": false,
    "byte_fallback": false,
    "ignore_merges": false,
    "vocab": {
      "<|endoftext|>": 0,
      "!": 1,
      "\"": 2,
      "$": 3,
      "%": 4,
      "&": 5,
      "'": 6,
      "(": 7,
      ")": 8,
      "*": 9,
      ",": 10,
      "-": 11,
      ".": 12,
      "/": 13,
      "0": 14,
      "1": 15,
      "2": 16,
      "3": 17,
      "4": 18,
      "5": 19,
      "6": 20,
      "7": 21,
      "8": 22,
      "9": 23,
      ":": 24,
      ";": 25,
      "=": 26,
      "?": 27,
      "A": 28,
      "B": 29,
      "C": 30,
      "D": 31,
      "E": 32,
      "F": 33,
      "G": 34,
      "H": 35,
      "I": 36,
      "J": 37,
      "K": 38,
      "L": 39,
      "M": 40,
      "N": 41,
      "O": 42,
      "P": 43,
      "Q": 44,
      "R": 45,
      "S": 46,
      "T": 47,
      "U": 48,
      "V": 49,
      "W": 50,
      "X": 51,
      "Y": 52,
      "Z": 53,
      "\\": 54,
      "]": 55,
      "^": 56,
      "_": 57,
      "`": 58,
      "a": 59,
      "b": 60,
      "c": 61,
      "d": 62,
      "e": 63,
      "f": 64,
      "g": 65,
      "h": 66,
      "i": 67,
      "j": 68,
      "k": 69,
      "l": 70,
      "m": 71,
      "n": 72,
      "o": 73,
      "p": 74,
      "q": 75,
      "r": 76,
      "s": 77,
      "t": 78,
      "u": 79,
      "v": 80,
      "w": 81,
      "x": 82,
      "y": 83,
      "z": 84,
      "}": 85,
      "~": 86,
      "ĉ": 87,
      "Ċ": 88,
      "Ġ": 89,
      "Ġt": 90,
      "he": 91,
      "Ġa": 92,
      "in": 93,
      "Ġs": 94,
      "Ġw": 95,
      "Ġthe": 96,
      "ed": 97,
      "er": 98,
      "ou": 99,
      "Ġh": 100,
      "ar": 101,
      "on": 102,
      "ing": 103,
      "nd": 104,
      "Ġb": 105,
      "re": 106,
      "Ġf": 107,
      "Ġo": 108,
      "Ġto": 109,
      "at": 110,
      "is": 111,
      "as": 112,
      "it": 113,
      "ĠH": 114,
      "Ġc": 115,
      "or": 116,
      "ll": 117,
      "id": 118,
      "en": 119,
      "le": 120,
      "Ġd": 121,
      "Ġhe": 122,
      "Ġm": 123,
      "Ġand": 124,
      "ry": 125,
      "Ġof": 126,
      "Ġth": 127,
      "Ġl": 128,
      "Ġp": 129,
      "ad": 130,
      "Ġg": 131,
      "an": 132,
      "arry": 133,
      "Ġin": 134,
      "ow": 135,
      "ly": 136,
      "es": 137,
      "Ġsa": 138,
      "oo": 139,
      "Ġn": 140,
      "Ġwas": 141,
      "Ġy": 142,
      "ĠHarry": 143,
      "Ġbe": 144,
      "gh": 145,
      "ot": 146,
      "Ġsaid": 147,
      "ck": 148,
      "om": 149,
      "Ġe": 150,
      "'s": 151,
      "Ġhis": 152,
      "ld": 153,
      "im": 154,
      "Ġst": 155,
      "Ġ\"": 156,
      "Ġon": 157,
      "Ġyou": 158,
      "st": 159,
      "Ġit": 160,
      "ver": 161,
      "..": 162,
      "ve": 163,
      "ĠI": 164,
      "et": 165,
      "ir": 166,
      "Ġu": 167,
      ",\"": 168,
      "ch": 169,
      "Ġ-": 170,
      "out": 171,
      "ut": 172,
      "Ġhad": 173,
      "ĠM": 174,
      "se": 175,
      "ent": 176,
      "Ġwh": 177,
      "ion": 178,
      "ce": 179,
      "ght": 180,
      "ag": 181,
      "ri": 182,
      "Ġat": 183,
      "Ġha": 184,
      "'t": 185,
      "ro": 186,
      "Ġas": 187,
      "al": 188,
      "Ġthat": 189,
      "The": 190,
      "Ġhim": 191,
      "ur": 192,
      "am": 193,
      "ĠS": 194,
      "ke": 195,
      "ook": 196,
      "ĠR": 197,
      "ay": 198,
      "?\"": 199,
      "ter": 200,
      "Ġ.": 201,
      "ith": 202,
      "ould": 203,
      "Ġre": 204,
      "ĠP": 205,
      "rou": 206,
      "ore": 207,
      "ĠD": 208,
      "Ġan": 209,
      "Ġse": 210,
      "all": 211,
      "Ġwith": 212,
      "ack": 213,
      "Ġfor": 214,
      "ard": 215,
      "pp": 216,
      ".\"": 217,
      "her": 218,
      "ĠRon": 219,
      "ill": 220,
      "um": 221,
      "Ġsh": 222,
      "!\"": 223,
      "Ġup": 224,
      "Ġr": 225,
      "erm": 226,
      "Ġlook": 227,
      "ĠW": 228,
      "to": 229,
      "Ġthey": 230,
      "Ġk": 231,
      "Ġout": 232,
      "pe": 233,
      "and": 234,
      "ight": 235,
      "ione": 236,
      "ermione": 237,
      "ere": 238,
      "ain": 239,
      "led": 240,
      "Ġfr": 241,
      "ĠC": 242,
      "ind": 243,
      "un": 244,
      "ĠHe": 245,
      "Ġle": 246,
      "ĠA": 247,
      "Ġdo": 248,
      "art": 249,
      "Ġne": 250,
      "Ġwere": 251,
      "ĠB": 252,
      "us": 253,
      "Ġ--": 254,
      "ell": 255,
      "Ġthem": 256,
      "ak": 257,
      "il": 258,
      "very": 259,
      "em": 260,
      "ic": 261,
      "Ġall": 262,
      "ĠF": 263,
      "one": 264,
      "ĠHermione": 265,
      "ff": 266,
      "ĠThe": 267,
      "Ġgo": 268,
      "Harry": 269,
      "ood": 270,
      "ge": 271,
      "ud": 272,
      "Ġnot": 273,
      "Ġher": 274,
      "Ġme": 275,
      "ome": 276,
      "ust": 277,
      "ast": 278,
      "Ġkn": 279,
      "Ġli": 280,
      "hing": 281,
      "ac": 282,
      "ss": 283,
      "Ġbut": 284,
      "Ġj": 285,
      "ble": 286,
      "ant": 287,
      "Ġfrom": 288,
      "ĠG": 289,
      "ess": 290,
      "Ġback": 291,
      "own": 292,
      "hed": 293,
      "Ġinto": 294,
      "Ġhave": 295,
      "Ġwe": 296,
      "round": 297,
      "el": 298,
      "rid": 299,
      "Ġcl": 300,
      "qu": 301,
      "Ġso": 302,
      "Ġdid": 303,
      "Ġcould": 304,
      "oy": 305,
      "Ġwho": 306,
      "Ġshe": 307,
      "ink": 308,
      "ort": 309,
      "Ġab": 310,
      "Ġwhe": 311,
      "Ġwhat": 312,
      "ide": 313,
      "ear": 314,
      "Ġbeen": 315,
      "ley": 316,
      "umb": 317,
      "ous": 318,
      "hat": 319,
      "our": 320,
      "ig": 321,
      "ick": 322,
      "if": 323,
      "ĠL": 324,
      "ĠT": 325,
      "Ġis": 326,
      "Ġex": 327,
      "ting": 328,
      "Ġthou": 329,
      "Ġno": 330,
      "ra": 331,
      "Ġv": 332,
      "ong": 333,
      "ep": 334,
      "agrid": 335,
      "ist": 336,
      "au": 337,
      "You": 338,
      "lf": 339,
      "ers": 340,
      "...": 341,
      "Ġtheir": 342,
      "Ġover": 343,
      "Ġdown": 344,
      "umbled": 345,
      "ice": 346,
      "Ġag": 347,
      "Ġone": 348,
      "Ġabout": 349,
      "Ġoff": 350,
      "oom": 351,
      "fess": 352,
      "Ġthis": 353,
      "na": 354,
      "rofess": 355,
      "Ġal": 356,
      "ct": 357,
      "umbledore": 358,
      "rofessor": 359,
      "Ġthere": 360,
      "iz": 361,
      "Ġpo": 362,
      "Ġfe": 363,
      "ven": 364,
      "up": 365,
      "ace": 366,
      "Ġlooked": 367,
      "Ġany": 368,
      "Ġgot": 369,
      "bb": 370,
      "Ġaround": 371,
      "ul": 372,
      "Ġsp": 373,
      "Ġwould": 374,
      "Ġch": 375,
      "Ġlike": 376,
      "Ġknow": 377,
      "ass": 378,
      "op": 379,
      "ĠHagrid": 380,
      "Ġvery": 381,
      "ark": 382,
      "ĠMr": 383,
      "'ve": 384,
      "ie": 385,
      "urn": 386,
      "'d": 387,
      "Ġqu": 388,
      "way": 389,
      "ĠN": 390,
      "Ġget": 391,
      "He": 392,
      "ther": 393,
      "ull": 394,
      "Ġey": 395,
      "ime": 396,
      "Ġagain": 397,
      "Ġtoo": 398,
      "ang": 399,
      "ĠDumbledore": 400,
      "ĠWe": 401,
      "the": 402,
      "Ġnow": 403,
      "Ġsu": 404,
      "ame": 405,
      "old": 406,
      "Ġwor": 407,
      "og": 408,
      "Ġfl": 409,
      "ward": 410,
      "ake": 411,
      "Ġsee": 412,
      "right": 413,
      "Ġmy": 414,
      "Ġbl": 415,
      "reat": 416,
      "ĠProfessor": 417,
      "est": 418,
      "Ġyour": 419,
      "th": 420,
      "Ġif": 421,
      "Ġjust": 422,
      "'ll": 423,
      "Ġhand": 424,
      "Ġun": 425,
      "ered": 426,
      "ally": 427,
      "Ġby": 428,
      "Ġsl": 429,
      "Ġthen": 430,
      "Ġdidn": 431,
      "ked": 432,
      "ap": 433,
      "Ġwhi": 434,
      "asley": 435,
      "Ġde": 436,
      "Ġpl": 437,
      "pped": 438,
      "Ġsc": 439,
      "nape": 440,
      "Ġhead": 441,
      "air": 442,
      "'re": 443,
      "ost": 444,
      "ted": 445,
      "os": 446,
      "ock": 447,
      "Ġthink": 448,
      "Ġcan": 449,
      "Ġwhen": 450,
      "Ġthough": 451,
      "ĠV": 452,
      "ĠWeasley": 453,
      "self": 454,
      "red": 455,
      "ound": 456,
      "Ġcon": 457,
      "Ġeyes": 458,
      "rough": 459,
      "....": 460,
      "alf": 461,
      "Ġro": 462,
      "Ġtw": 463,
      "Ġare": 464,
      "Ġcom": 465,
      "ol": 466,
      "Ġmore": 467,
      "Ġsm": 468,
      "Ġus": 469,
      "orm": 470,
      "Ġtime": 471,
      "alfoy": 472,
      "row": 473,
      "Ġwant": 474,
      "Ġhow": 475,
      "It": 476,
      "Ġsome": 477,
      "ond": 478,
      "Ġgoing": 479,
      "Ġwand": 480,
      "ree": 481,
      "ĠIt": 482,
      "gg": 483,
      "Ġlooking": 484,
      "ate": 485,
      "Ġface": 486,
      "ire": 487,
      "ĠSnape": 488,
      "ive": 489,
      "Ġstill": 490,
      "Ġthrough": 491,
      "idd": 492,
      "ved": 493,
      "ving": 494,
      "Ġright": 495,
      "ave": 496,
      "Ġturn": 497,
      "Ġthan": 498,
      "fore": 499,
      "Ġdon": 500,
      "Ġgl": 501,
      "able": 502,
      "Ġdoor": 503,
      "ite": 504,
      "omet": 505,
      "ure": 506,
      "atch": 507,
      "nder": 508,
      "Ġvo": 509,
      "ĠPot": 510,
      "ling": 511,
      "What": 512,
      "pt": 513,
      "Ġte": 514,
      "Ġor": 515,
      "Ġevery": 516,
      "other": 517,
      "ily": 518,
      "'m": 519,
      "Ġtr": 520,
      "aking": 521,
      "Ġbr": 522,
      "ened": 523,
      "ne": 524,
      "Ġsay": 525,
      "ĠMalfoy": 526,
      "king": 527,
      "ĠO": 528,
      "be": 529,
      "Ġar": 530,
      "omething": 531,
      "ched": 532,
      "Ġwill": 533,
      "tle": 534,
      "side": 535,
      "ried": 536,
      "aring": 537,
      "But": 538,
      "Ġ-\"": 539,
      "Ġen": 540,
      "inn": 541,
      "Ġvoice": 542,
      "izard": 543,
      "thing": 544,
      "orn": 545,
      "Ġbefore": 546,
      "fter": 547,
      "Ġman": 548,
      "ts": 549,
      "Ġke": 550,
      "Ġhere": 551,
      "ade": 552,
      "Ġseem": 553,
      "are": 554,
      "Ġsw": 555,
      "Ġonly": 556,
      "ose": 557,
      "ves": 558,
      "Ġsaw": 559,
      "Ġlet": 560,
      "ab": 561,
      "ft": 562,
      "ĠE": 563,
      "itch": 564,
      "Ġgr": 565,
      "Ġop": 566,
      "ĠPotter": 567,
      "Ġlong": 568,
      "Ġother": 569,
      "Ġmo": 570,
      "uff": 571,
      "ather": 572,
      "Ġway": 573,
      "ared": 574,
      "ents": 575,
      "aw": 576,
      "ation": 577,
      "udd": 578,
      "ĠHog": 579,
      "Ġwhich": 580,
      "Ġroom": 581,
      "Ġow": 582,
      "ool": 583,
      "ĠK": 584,
      "age": 585,
      "Ġthought": 586,
      "arts": 587,
      "Ġtold": 588,
      "ius": 589,
      "Ġsomething": 590,
      "xt": 591,
      "ause": 592,
      "Ġnever": 593,
      "hind": 594,
      "arge": 595,
      "Ġhapp": 596,
      "Ġtell": 597,
      "Ġpe": 598,
      "Qu": 599,
      "Ġthing": 600,
      "ank": 601,
      "agic": 602,
      "ach": 603,
      "irst": 604,
      "Ġyear": 605,
      "Ġaway": 606,
      "ath": 607,
      "ĠThey": 608,
      "Ġlast": 609,
      "ever": 610,
      "ber": 611,
      "And": 612,
      "Ġpoin": 613,
      "Ġbec": 614,
      "Ġstart": 615,
      "warts": 616,
      "Ġtoward": 617,
      "Ġafter": 618,
      "Ġspe": 619,
      "Ġeven": 620,
      "Ġdi": 621,
      "od": 622,
      "Ġcome": 623,
      "les": 624,
      "ĠCh": 625,
      "Ġheard": 626,
      "Ġwhere": 627,
      "Ġturned": 628,
      "Ġdis": 629,
      "Ġbet": 630,
      "Ġhimself": 631,
      "Ġtry": 632,
      "Ġunder": 633,
      "uck": 634,
      "Ġbehind": 635,
      "ater": 636,
      "Ġkne": 637,
      "We": 638,
      "ople": 639,
      "imp": 640,
      "uch": 641,
      "ously": 642,
      "sh": 643,
      "They": 644,
      "ress": 645,
      "ont": 646,
      "Ġac": 647,
      "Ġ--\"": 648,
      "upin": 649,
      "fe": 650,
      "his": 651,
      "ĠHogwarts": 652,
      "me": 653,
      "ugg": 654,
      "cle": 655,
      "ryff": 656,
      "indor": 657,
      "ering": 658,
      "ory": 659,
      "ĠBl": 660,
      "ryffindor": 661,
      "ase": 662,
      "Ġseemed": 663,
      "ance": 664,
      "act": 665,
      "Ġfirst": 666,
      "oody": 667,
      "Ġshould": 668,
      "Ġwizard": 669,
      "cG": 670,
      "Ġits": 671,
      "cGon": 672,
      "ĠQu": 673,
      "Ġwent": 674,
      "agall": 675,
      "ped": 676,
      "cGonagall": 677,
      "ee": 678,
      "ross": 679,
      "ĠYou": 680,
      "Ġmuch": 681,
      "ine": 682,
      "less": 683,
      "Ġapp": 684,
      "Ġsil": 685,
      "Ġpull": 686,
      "oll": 687,
      "Ġwa": 688,
      "ern": 689,
      "Ġwal": 690,
      "rew": 691,
      "obb": 692,
      "Ġtable": 693,
      "hen": 694,
      "udden": 695,
      "Ġ...": 696,
      "ev": 697,
      "chool": 698,
      "Ġnext": 699,
      "ouse": 700,
      "Ġlarge": 701,
      "Ġgood": 702,
      "Ġever": 703,
      "Un": 704,
      "Ġrem": 705,
      "Ġput": 706,
      "Ġsec": 707,
      "ĠFred": 708,
      "Ġmade": 709,
      "irius": 710,
      "pl": 711,
      "ful": 712,
      "ĠLupin": 713,
      "ish": 714,
      "cy": 715,
      "oud": 716,
      "end": 717,
      "Ġsudden": 718,
      "Ġcame": 719,
      "owed": 720,
      "ment": 721,
      "Ġmom": 722,
      "ail": 723,
      "ons": 724,
      "Wh": 725,
      "ue": 726,
      "Ġdr": 727,
      "Ġpre": 728,
      "orge": 729,
      "ĠGryffindor": 730,
      "eorge": 731,
      "ough": 732,
      "ord": 733,
      "ĠMcGonagall": 734,
      "ille": 735,
      "Ġtwo": 736,
      "Ġknew": 737,
      "dd": 738,
      "Ġfront": 739,
      "oor": 740,
      "Ġtal": 741,
      "Ġhas": 742,
      "Ġleft": 743,
      "emort": 744,
      "oldemort": 745,
      "ady": 746,
      "Ġcouldn": 747,
      "ise": 748,
      "elt": 749,
      "Ġwasn": 750,
      "Ġpeople": 751,
      "Ġlit": 752,
      "rouch": 753,
      "Ġbot": 754,
      "ions": 755,
      "unn": 756,
      "Ġhur": 757,
      "eville": 758,
      "Ġent": 759,
      "Ġonce": 760,
      "Ġfelt": 761,
      "Ġneed": 762,
      "here": 763,
      "Ġschool": 764,
      "Ġreally": 765,
      "Ġend": 766,
      "Ġstr": 767,
      "Ġmoment": 768,
      "No": 769,
      "Ġche": 770,
      "ĠMoody": 771,
      "Ron": 772,
      "Ġarm": 773,
      "obby": 774,
      "Hermione": 775,
      "Ġdark": 776,
      "amp": 777,
      "cl": 778,
      "Ġhard": 779,
      "ated": 780,
      "Ġbed": 781,
      "Ġter": 782,
      "Ġwind": 783,
      "Ġfeet": 784,
      "Ġtook": 785,
      "Ġold": 786,
      "Ġnear": 787,
      "ĠGeorge": 788,
      "lie": 789,
      "ernon": 790,
      "There": 791,
      "Ġboy": 792,
      "Ġanything": 793,
      "utter": 794,
      "urs": 795,
      "Ġmight": 796,
      "hes": 797,
      "Ġpro": 798,
      "Ġ'": 799,
      "ĠVoldemort": 800,
      "app": 801,
      "ric": 802,
      "arm": 803,
      "ĠSirius": 804,
      "Oh": 805,
      "Ġbit": 806,
      "ĠShe": 807,
      "ĠAnd": 808,
      "ercy": 809,
      "Ġmust": 810,
      "Uncle": 811,
      "Well": 812,
      "ple": 813,
      "Ġwell": 814,
      "ĠCrouch": 815,
      "Ġbecause": 816,
      "Ġtrying": 817,
      "Ġday": 818,
      "ign": 819,
      "Ġfeel": 820,
      "ĠVernon": 821,
      "ary": 822,
      "lyther": 823,
      "lytherin": 824,
      "ence": 825,
      "Ġopen": 826,
      "Ġsuddenly": 827,
      "Ġstand": 828,
      "Ġground": 829,
      "Ġclass": 830,
      "oun": 831,
      "Ġthree": 832,
      "ĠPet": 833,
      "Ġsupp": 834,
      "unt": 835,
      "Ġhel": 836,
      "Ġatt": 837,
      "ody": 838,
      "man": 839,
      "Ġdes": 840,
      "ors": 841,
      "iss": 842,
      "Ġtake": 843,
      "Ġwr": 844,
      "eh": 845,
      "Ġcr": 846,
      "Ġkeep": 847,
      "ĠMrs": 848,
      "een": 849,
      "isp": 850,
      "Ġmake": 851,
      "ĠMad": 852,
      "ached": 853,
      "ans": 854,
      "Ġfind": 855,
      "Ġnight": 856,
      "Ġem": 857,
      "Ġhands": 858,
      "ies": 859,
      "ream": 860,
      "Ġasked": 861,
      "Ġinside": 862,
      "ĠNeville": 863,
      "ĠBlack": 864,
      "ourse": 865,
      "edric": 866,
      "...\"": 867,
      "Ġseen": 868,
      "Ġpulled": 869,
      "Ġsecond": 870,
      "room": 871,
      "osed": 872,
      "Ġsk": 873,
      "Ġloud": 874,
      "ement": 875,
      "Ġquick": 876,
      "Ġam": 877,
      "Ġbook": 878,
      "Ġlittle": 879,
      "ied": 880,
      "Ġfound": 881,
      "Ġcar": 882,
      "Ġpass": 883,
      "Ġgi": 884,
      "Ġblack": 885,
      "Ġel": 886,
      "Ġ.\"": 887,
      "Ġanother": 888,
      "Ġcont": 889,
      "Ġsit": 890,
      "Ġgreat": 891,
      "airs": 892,
      "ile": 893,
      "Ġfew": 894,
      "av": 895,
      "bes": 896,
      "get": 897,
      "Ġwatch": 898,
      "Ġcle": 899,
      "udley": 900,
      "Ġcast": 901,
      "Ġqui": 902,
      "ully": 903,
      "Ġown": 904,
      "ĠSlytherin": 905,
      "Ġfire": 906,
      "Ġonto": 907,
      "ĠBut": 908,
      "aught": 909,
      "Ġhouse": 910,
      "you": 911,
      "Ġfloor": 912,
      "ty": 913,
      "Ġset": 914,
      "Ġhair": 915,
      "Ġword": 916,
      "az": 917,
      "Ġcall": 918,
      "Ġsure": 919,
      "Ġsn": 920,
      "Ġhear": 921,
      "ump": 922,
      "ah": 923,
      "Ġho": 924,
      "ently": 925,
      "Ġear": 926,
      "Ġwhisp": 927,
      "Ġsur": 928,
      "ĠPercy": 929,
      "Ġwhile": 930,
      "oak": 931,
      "ĠUncle": 932,
      "Ġsound": 933,
      "Ġside": 934,
      "ished": 935,
      "Ġlight": 936,
      "Ġrobes": 937,
      "idditch": 938,
      "Ġacross": 939,
      "Ġsat": 940,
      "ening": 941,
      "Ġstud": 942,
      "udge": 943,
      "ect": 944,
      "Ġsqu": 945,
      "ip": 946,
      "igg": 947,
      "Ġstarted": 948,
      "per": 949,
      "ised": 950,
      "Ġwindow": 951,
      "day": 952,
      "ating": 953,
      "ity": 954,
      "Ġpar": 955,
      "ĠDobby": 956,
      "Ġhelp": 957,
      "ĠCedric": 958,
      "Ġnew": 959,
      "ĠThere": 960,
      "ockh": 961,
      "igh": 962,
      "Ġpr": 963,
      "ockhart": 964,
      "Ġimp": 965,
      "Ġstood": 966,
      "ĠMin": 967,
      "Ġgave": 968,
      "ower": 969,
      "ized": 970,
      "ĠJ": 971,
      "Ġbeg": 972,
      "ks": 973,
      "Ġair": 974,
      "ĠSt": 975,
      "Ġshout": 976,
      "ced": 977,
      "ious": 978,
      "Ġjo": 979,
      "eah": 980,
      "li": 981,
      "head": 982,
      "Ġhu": 983,
      "Ġcourse": 984,
      "agman": 985,
      "Ġcastle": 986,
      "oot": 987,
      "Ġeach": 988,
      "outh": 989,
      "ĠMugg": 990,
      "ung": 991,
      "Ġunt": 992,
      "rum": 993,
      "Ġfin": 994,
      "Ġmin": 995,
      "rowd": 996,
      "Ġwait": 997,
      "Ġsmall": 998,
      "aster": 999,
      "Ġquiet": 1000,
      "ia": 1001,
      "Ġfell": 1002,
      "ĠThen": 1003,
      "ĠQuidditch": 1004,
      "Ġstaring": 1005,
      "riend": 1006,
      "Ġhalf": 1007,
      "Professor": 1008,
      "ild": 1009,
      "iling": 1010,
      "bl": 1011,
      "most": 1012,
      "Ġdone": 1013,
      "ĠIn": 1014,
      "ways": 1015,
      "anger": 1016,
      "Ġelse": 1017,
      "was": 1018,
      "Ġour": 1019,
      "Ġwall": 1020,
      "ĠDudley": 1021,
      "Ġyell": 1022,
      "iddle": 1023,
      "Ġquickly": 1024,
      "Ġenough": 1025,
      "ursley": 1026,
      "over": 1027,
      "ret": 1028,
      "pr": 1029,
      "Ġmutter": 1030,
      "Ġbetter": 1031,
      "Ġwalked": 1032,
      "That": 1033,
      "Ġcrowd": 1034,
      "ix": 1035,
      "atter": 1036,
      "oc": 1037,
      "off": 1038,
      "ten": 1039,
      "Ġmind": 1040,
      "Ġowl": 1041,
      "ĠMagic": 1042,
      "ĠBagman": 1043,
      "Ġmean": 1044,
      "Ġforward": 1045,
      "fully": 1046,
      "Ġtried": 1047,
      "Ġmagic": 1048,
      "Ġmouth": 1049,
      "Ġpast": 1050,
      "ightly": 1051,
      "Ġyears": 1052,
      "Ġsort": 1053,
      "Ġyeh": 1054,
      "of": 1055,
      "Ġper": 1056,
      "Ġalong": 1057,
      "Ġfam": 1058,
      "Ġmost": 1059,
      "pping": 1060,
      "Ġra": 1061,
      "Hagrid": 1062,
      "ches": 1063,
      "erv": 1064,
      "Ġfore": 1065,
      "Ġbeing": 1066,
      "ĠDe": 1067,
      "....\"": 1068,
      "So": 1069,
      "form": 1070,
      "ĠY": 1071,
      "Ġgone": 1072,
      "Ġreached": 1073,
      "Ġgold": 1074,
      "eared": 1075,
      "ible": 1076,
      "turn": 1077,
      "Ġfoll": 1078,
      "Ġple": 1079,
      "Ġwouldn": 1080,
      "Ġwanted": 1081,
      "inny": 1082,
      "Ġboth": 1083,
      "mon": 1084,
      "Ġhold": 1085,
      "Ġleg": 1086,
      "rabb": 1087,
      "ER": 1088,
      "tain": 1089,
      "Ġbroom": 1090,
      "body": 1091,
      "uri": 1092,
      "ĠHis": 1093,
      "Ġste": 1094,
      "Ġwithout": 1095,
      "Ġagainst": 1096,
      "Ġbreat": 1097,
      "Ġhadn": 1098,
      "Ġminut": 1099,
      "ove": 1100,
      "ying": 1101,
      "atched": 1102,
      "Ġread": 1103,
      "Ġdoing": 1104,
      "Ġhappened": 1105,
      "Ġrest": 1106,
      "Ġuntil": 1107,
      "abb": 1108,
      "pect": 1109,
      "ĠKrum": 1110,
      "Ġdiff": 1111,
      "Ġbegan": 1112,
      "She": 1113,
      "ĠDursley": 1114,
      "ĠLockhart": 1115,
      "Ġcoming": 1116,
      "Ġbre": 1117,
      "Ġlist": 1118,
      "Ġsto": 1119,
      "Ġnothing": 1120,
      "Ġwhispered": 1121,
      "oke": 1122,
      "Ġfriend": 1123,
      "ember": 1124,
      "Ġdrag": 1125,
      "iously": 1126,
      "Ġwhy": 1127,
      "Ġeye": 1128,
      "Ġslow": 1129,
      "Ġletter": 1130,
      "te": 1131,
      "ins": 1132,
      "Ġsna": 1133,
      "Ġtop": 1134,
      "ird": 1135,
      "Ġreal": 1136,
      "Ġkill": 1137,
      "Ġopened": 1138,
      "Ġtalking": 1139,
      "Ġbad": 1140,
      "unk": 1141,
      "istry": 1142,
      "tail": 1143,
      "Ġlot": 1144,
      "Ġstared": 1145,
      "ged": 1146,
      "Ġfather": 1147,
      "orrid": 1148,
      "ĠDark": 1149,
      "ib": 1150,
      "reen": 1151,
      "irl": 1152,
      "Ġang": 1153,
      "Ġalmost": 1154,
      "Ġlau": 1155,
      "ĠFl": 1156,
      "Ġquite": 1157,
      "Ġcold": 1158,
      "Ġname": 1159,
      "Ġthings": 1160,
      "Who": 1161,
      "Yeah": 1162,
      "Ġstra": 1163,
      "Ġscar": 1164,
      "Ġsir": 1165,
      "Ġbo": 1166,
      "Ġless": 1167,
      "ably": 1168,
      "now": 1169,
      "Ġfour": 1170,
      "leep": 1171,
      "Ġpart": 1172,
      "ilch": 1173,
      "Ġexc": 1174,
      "Ġplace": 1175,
      "Ġbu": 1176,
      "Ġbelie": 1177,
      "Ġsitting": 1178,
      "ither": 1179,
      "ĠHall": 1180,
      "Ġcare": 1181,
      "ange": 1182,
      "icul": 1183,
      "icked": 1184,
      "How": 1185,
      "Ġmuttered": 1186,
      "Ġtre": 1187,
      "Ġthese": 1188,
      "Ġhor": 1189,
      "arn": 1190,
      "ense": 1191,
      "Ġdro": 1192,
      "Ġstanding": 1193,
      "ual": 1194,
      "ready": 1195,
      "ĠAunt": 1196,
      "Ġdoes": 1197,
      "Ġanyone": 1198,
      "Ġcalled": 1199,
      "ĠFudge": 1200,
      "ĠGr": 1201,
      "Ġkept": 1202,
      "de": 1203,
      "Ġsame": 1204,
      "ined": 1205,
      "Ġwon": 1206,
      "Ġbro": 1207,
      "inky": 1208,
      "Ġcur": 1209,
      "Ġthose": 1210,
      "Ġuse": 1211,
      "aken": 1212,
      "Ġcloak": 1213,
      "Ġext": 1214,
      "Ġeveryone": 1215,
      "Ġmany": 1216,
      "wh": 1217,
      "where": 1218,
      "ĠAr": 1219,
      "ĠMinistry": 1220,
      "imb": 1221,
      "rel": 1222,
      "owing": 1223,
      "Ġwhole": 1224,
      "Ġ(": 1225,
      "Ġstudents": 1226,
      "look": 1227,
      "ince": 1228,
      "Ġdement": 1229,
      "Ġgive": 1230,
      "Ġask": 1231,
      "Ġteac": 1232,
      "br": 1233,
      "ness": 1234,
      "ĠTh": 1235,
      "Ġsomeone": 1236,
      "Ġshouted": 1237,
      "Mr": 1238,
      "ron": 1239,
      "Ġlater": 1240,
      "ching": 1241,
      "anks": 1242,
      "Ġslowly": 1243,
      "ec": 1244,
      "Ġfing": 1245,
      "ited": 1246,
      "Ġinter": 1247,
      "Ġupon": 1248,
      "Ġdeep": 1249,
      "Ġplay": 1250,
      "ĠMadam": 1251,
      "Dumbledore": 1252,
      "Ġsight": 1253,
      "Ġfoot": 1254,
      "Ġyet": 1255,
      "ĠMy": 1256,
      "Ġred": 1257,
      "Ġalways": 1258,
      "Ġwork": 1259,
      "ney": 1260,
      "Yes": 1261,
      "Ġfull": 1262,
      "Ġpa": 1263,
      "ets": 1264,
      "Ġreturn": 1265,
      "unia": 1266,
      "Ġgetting": 1267,
      "Ġdead": 1268,
      "Ġglass": 1269,
      "Ġstopped": 1270,
      "Ġbest": 1271,
      "Ġcorrid": 1272,
      "Ġru": 1273,
      "Ġalready": 1274,
      "ield": 1275,
      "ocked": 1276,
      "Ġstop": 1277,
      "Ġsaying": 1278,
      "aroff": 1279,
      "Ġoutside": 1280,
      "arkaroff": 1281,
      "lves": 1282,
      "ndred": 1283,
      "Ġcaught": 1284,
      "Ġstraight": 1285,
      "that": 1286,
      "Ġhigh": 1287,
      "Ġgirl": 1288,
      "Ġhall": 1289,
      "ained": 1290,
      "ĠGinny": 1291,
      "Ġoffice": 1292,
      "Th": 1293,
      "vis": 1294,
      "oyle": 1295,
      "Ġhowever": 1296,
      "orning": 1297,
      "Ġwizards": 1298,
      "Ġbooks": 1299,
      "ĠFilch": 1300,
      "eps": 1301,
      "sw": 1302,
      "Ġfar": 1303,
      "Ġlife": 1304,
      "If": 1305,
      "ery": 1306,
      "ĠWood": 1307,
      "Ġslightly": 1308,
      "aps": 1309,
      "ĠPetunia": 1310,
      "Ġwatching": 1311,
      "Ġraised": 1312,
      "imes": 1313,
      "rif": 1314,
      "Ġwee": 1315,
      "Ġfeeling": 1316,
      "Ġteacher": 1317,
      "HE": 1318,
      "ormtail": 1319,
      "Not": 1320,
      "ĠĠ": 1321,
      "Ġhit": 1322,
      "Ġmaking": 1323,
      "Ġstay": 1324,
      "Ġteam": 1325,
      "dded": 1326,
      "ought": 1327,
      "Ġpers": 1328,
      "Ġgreen": 1329,
      "Ġinst": 1330,
      "raw": 1331,
      "ures": 1332,
      "case": 1333,
      "ging": 1334,
      "Ġad": 1335,
      "Ġexpl": 1336,
      "Ġwond": 1337,
      "Ġhour": 1338,
      "imm": 1339,
      "ĠAn": 1340,
      "Ġempt": 1341,
      "Ġhundred": 1342,
      "Ġable": 1343,
      "ict": 1344,
      "Ġclose": 1345,
      "Ġchamp": 1346,
      "Ġmove": 1347,
      "Ġwater": 1348,
      "Ġcorn": 1349,
      "Ġdisapp": 1350,
      "Ġquietly": 1351,
      "ror": 1352,
      "so": 1353,
      "ween": 1354,
      "Ġide": 1355,
      "Ġgu": 1356,
      "ĠMuggle": 1357,
      "Ġminutes": 1358,
      "cing": 1359,
      "Ġsign": 1360,
      "ĠIf": 1361,
      "ention": 1362,
      "ames": 1363,
      "aced": 1364,
      "Ġbreak": 1365,
      "Don": 1366,
      "rible": 1367,
      "Ġcommon": 1368,
      "had": 1369,
      "Ġri": 1370,
      "Ġsince": 1371,
      "lled": 1372,
      "Ġmorning": 1373,
      "Ġeverything": 1374,
      "ĠKarkaroff": 1375,
      "ister": 1376,
      "rive": 1377,
      "Ġseat": 1378,
      "umm": 1379,
      "ĠWh": 1380,
      "iled": 1381,
      "Ġdist": 1382,
      "rying": 1383,
      "Ġthick": 1384,
      "Ġexce": 1385,
      "Ġattack": 1386,
      "Ġloudly": 1387,
      "Ġclear": 1388,
      "ĠDursleys": 1389,
      "wo": 1390,
      "Ġwatched": 1391,
      "Ġhat": 1392,
      "ings": 1393,
      "Ġnose": 1394,
      "Why": 1395,
      "ey": 1396,
      "him": 1397,
      "Ġtrou": 1398,
      "Ġpain": 1399,
      "Ġstuff": 1400,
      "Ġsupposed": 1401,
      "rell": 1402,
      "aged": 1403,
      "Ġhaven": 1404,
      "ĠAs": 1405,
      "Ġvis": 1406,
      "cabb": 1407,
      "iv": 1408,
      "kay": 1409,
      "Ġob": 1410,
      "ati": 1411,
      "ork": 1412,
      "omf": 1413,
      "ĠBe": 1414,
      "ĠGoyle": 1415,
      "Ġscream": 1416,
      "with": 1417,
      "ask": 1418,
      "Ġshort": 1419,
      "ĠWhat": 1420,
      "ĠGreat": 1421,
      "gether": 1422,
      "Ġbreath": 1423,
      "Ġlaugh": 1424,
      "Ġbelieve": 1425,
      "cabbers": 1426,
      "Ġser": 1427,
      "Ġfield": 1428,
      "Ġcup": 1429,
      "ens": 1430,
      "ĠWormtail": 1431,
      "ĠFire": 1432,
      "antly": 1433,
      "Ġwearing": 1434,
      "ize": 1435,
      "Ġdec": 1436,
      "Ġremember": 1437,
      "Ġhurried": 1438,
      "HA": 1439,
      "bol": 1440,
      "ier": 1441,
      "ng": 1442,
      "Ġtaken": 1443,
      "ash": 1444,
      "iding": 1445,
      "Ġlow": 1446,
      "ction": 1447,
      "Ġposs": 1448,
      "ately": 1449,
      "rabbe": 1450,
      "ax": 1451,
      "ken": 1452,
      "ars": 1453,
      "ushed": 1454,
      "Ġnoise": 1455,
      "Ġbetween": 1456,
      "Ġyelled": 1457,
      "Ġholding": 1458,
      "--": 1459,
      "rance": 1460,
      "Ġstone": 1461,
      "Ġpointed": 1462,
      "ressed": 1463,
      "Ġidea": 1464,
      "let": 1465,
      "Ġmar": 1466,
      "used": 1467,
      "Ġspot": 1468,
      "Ġwords": 1469,
      "rac": 1470,
      "Ġhome": 1471,
      "Ġegg": 1472,
      "Ġres": 1473,
      "Ġnotic": 1474,
      "Ġswe": 1475,
      "actly": 1476,
      "Ġtalk": 1477,
      "iggory": 1478,
      "All": 1479,
      "This": 1480,
      "but": 1481,
      "int": 1482,
      "Ġheav": 1483,
      "Ġrec": 1484,
      "Ġrather": 1485,
      "udg": 1486,
      "awney": 1487,
      "relawney": 1488,
      "Ġempty": 1489,
      "Snape": 1490,
      "arp": 1491,
      "Ġbag": 1492,
      "lt": 1493,
      "low": 1494,
      "ph": 1495,
      "ued": 1496,
      "Ġ....": 1497,
      "Ġten": 1498,
      "Ġbright": 1499,
      "Ġmother": 1500,
      "Ġlea": 1501,
      "Ġusual": 1502,
      "Come": 1503,
      "Er": 1504,
      "Ġaw": 1505,
      "Ġbus": 1506,
      "Ġfast": 1507,
      "Ġheart": 1508,
      "ured": 1509,
      "ĠRiddle": 1510,
      "ĠWinky": 1511,
      "Ġpointing": 1512,
      "oon": 1513,
      "tom": 1514,
      "Ġtaking": 1515,
      "Ġfly": 1516,
      "Ġfac": 1517,
      "Ġtogether": 1518,
      "Ġgrow": 1519,
      "Ġstair": 1520,
      "str": 1521,
      "vel": 1522,
      "amber": 1523,
      "Ġsilence": 1524,
      "Ġhope": 1525,
      "Ġdementors": 1526,
      "read": 1527,
      "Ġmiss": 1528,
      "selves": 1529,
      "like": 1530,
      "by": 1531,
      "rook": 1532,
      "orry": 1533,
      "ided": 1534,
      "stick": 1535,
      "ĠDiggory": 1536,
      "Ġcomp": 1537,
      "shanks": 1538,
      "Ġsurpr": 1539,
      "rookshanks": 1540,
      "ci": 1541,
      "Ġce": 1542,
      "Ġlost": 1543,
      "Ġansw": 1544,
      "ĠHead": 1545,
      "ĠAll": 1546,
      "Ġpock": 1547,
      "Ġsilver": 1548,
      "Ġcorner": 1549,
      "TER": 1550,
      "aid": 1551,
      "for": 1552,
      "wig": 1553,
      "Ġtri": 1554,
      "ashed": 1555,
      "ene": 1556,
      "Ġdear": 1557,
      "Ġheld": 1558,
      "stand": 1559,
      "Ġtelling": 1560,
      "Ġentrance": 1561,
      "Ġcorridor": 1562,
      "Ġed": 1563,
      "edwig": 1564,
      "Ġbur": 1565,
      "Ġmon": 1566,
      "Ġmatch": 1567,
      "Ġgas": 1568,
      "Ġshaking": 1569,
      "Ġtrain": 1570,
      "OU": 1571,
      "Ġsleep": 1572,
      "Ġfall": 1573,
      "ĠHow": 1574,
      "otion": 1575,
      "irrell": 1576,
      "ament": 1577,
      "ĠCup": 1578,
      "Ġisn": 1579,
      "Ġalone": 1580,
      "Ġmoved": 1581,
      "Ġtrouble": 1582,
      "aven": 1583,
      "light": 1584,
      "Ġleave": 1585,
      "ĠLord": 1586,
      "ĠTrelawney": 1587,
      "Ġthinking": 1588,
      "Ġshoulder": 1589,
      "Ġgrounds": 1590,
      "Ġpassed": 1591,
      "Ġfollowed": 1592,
      "As": 1593,
      "ually": 1594,
      "ertain": 1595,
      "Ġyes": 1596,
      "chment": 1597,
      "Ġwhite": 1598,
      "Ġsever": 1599,
      "Ġshut": 1600,
      "beak": 1601,
      "An": 1602,
      "got": 1603,
      "nament": 1604,
      "ining": 1605,
      "Ġarri": 1606,
      "eeves": 1607,
      "Ġappeared": 1608,
      "iny": 1609,
      "rey": 1610,
      "ored": 1611,
      "aming": 1612,
      "they": 1613,
      "inning": 1614,
      "IN": 1615,
      "When": 1616,
      "Ġfree": 1617,
      "Ġfuri": 1618,
      "Ġnerv": 1619,
      "roll": 1620,
      "Ġrat": 1621,
      "ĠCrabbe": 1622,
      "Ġmoving": 1623,
      "fect": 1624,
      "unning": 1625,
      "plete": 1626,
      "Ġdiffer": 1627,
      "der": 1628,
      "Ġtimes": 1629,
      "enty": 1630,
      "ages": 1631,
      "Ġclimb": 1632,
      "idden": 1633,
      "Ġdesk": 1634,
      "Ġfamily": 1635,
      "Ġperson": 1636,
      "omfrey": 1637,
      "Ġstaircase": 1638,
      "Ġ...\"": 1639,
      "itc": 1640,
      "Ġcat": 1641,
      "Ġcover": 1642,
      "Ġmet": 1643,
      "Ġeither": 1644,
      "ĠScabbers": 1645,
      "Ġspeak": 1646,
      "uckbeak": 1647,
      "Ġcontin": 1648,
      "Ġears": 1649,
      "My": 1650,
      "aff": 1651,
      "ead": 1652,
      "tig": 1653,
      "Ġball": 1654,
      "rie": 1655,
      "Ġhaving": 1656,
      "Ġdog": 1657,
      "Ġtrunk": 1658,
      "Ġgiven": 1659,
      "we": 1660,
      "ased": 1661,
      "Ġdou": 1662,
      "Ġsharp": 1663,
      "ournament": 1664,
      "auld": 1665,
      "Ġarms": 1666,
      "tigrew": 1667,
      "Malfoy": 1668,
      "bo": 1669,
      "press": 1670,
      "stairs": 1671,
      "ĠThis": 1672,
      "Ġexpect": 1673,
      "Ġnearly": 1674,
      "Ġfingers": 1675,
      "Ġsent": 1676,
      "Ġfive": 1677,
      "Ġmatter": 1678,
      "Ġrep": 1679,
      "ĠWhen": 1680,
      "aked": 1681,
      "Ġsque": 1682,
      "looking": 1683,
      "haps": 1684,
      "mas": 1685,
      "not": 1686,
      "ope": 1687,
      "rist": 1688,
      "rtle": 1689,
      "ug": 1690,
      "ze": 1691,
      "Ġfle": 1692,
      "idn": 1693,
      "Ġpower": 1694,
      "ckon": 1695,
      "inking": 1696,
      "Ġforest": 1697,
      "Ġburst": 1698,
      "itchen": 1699,
      "Ġcarry": 1700,
      "Ġdire": 1701,
      "Ġmist": 1702,
      "Ġlo": 1703,
      "Ġstre": 1704,
      "aybe": 1705,
      "Ġabove": 1706,
      "Ġchair": 1707,
      "anging": 1708,
      "Ġacc": 1709,
      "Ġexcept": 1710,
      "Now": 1711,
      "St": 1712,
      "wizard": 1713,
      "Ġfif": 1714,
      "ows": 1715,
      "ĠMax": 1716,
      "akes": 1717,
      "ĠFor": 1718,
      "ears": 1719,
      "Ġsmile": 1720,
      "Ġused": 1721,
      "Ġpoint": 1722,
      "unny": 1723,
      "Ġparchment": 1724,
      "ĠMaxime": 1725,
      "Ġpack": 1726,
      "ĠPomfrey": 1727,
      "Ġkind": 1728,
      "Ġkitchen": 1729,
      "ility": 1730,
      "Ġclos": 1731,
      "Ġsoon": 1732,
      "awn": 1733,
      "Ġpoints": 1734,
      "Ġlegs": 1735,
      "Ġnoticed": 1736,
      "ristmas": 1737,
      "Bl": 1738,
      "ex": 1739,
      "kab": 1740,
      "sit": 1741,
      "zkab": 1742,
      "ita": 1743,
      "Ġdraw": 1744,
      "Ġmad": 1745,
      "uring": 1746,
      "Ġsend": 1747,
      "umped": 1748,
      "zkaban": 1749,
      "EN": 1750,
      "OR": 1751,
      "ipp": 1752,
      "iff": 1753,
      "Ġcoun": 1754,
      "any": 1755,
      "aned": 1756,
      "Ġstairs": 1757,
      "ster": 1758,
      "Ġshook": 1759,
      "auldron": 1760,
      "eam": 1761,
      "how": 1762,
      "ipped": 1763,
      "ĠHedwig": 1764,
      "Ġhiss": 1765,
      "rill": 1766,
      "Ġref": 1767,
      "Ġrun": 1768,
      "Ġmeet": 1769,
      "Ġcomplete": 1770,
      "Ġentered": 1771,
      "Ġwrong": 1772,
      "Ġmagical": 1773,
      "Ġplease": 1774,
      "Ġexcited": 1775,
      "bolt": 1776,
      "Ġdel": 1777,
      "Ġins": 1778,
      "ĠCl": 1779,
      "Ġthemselves": 1780,
      "Ġexactly": 1781,
      "upid": 1782,
      "At": 1783,
      "Know": 1784,
      "fr": 1785,
      "hand": 1786,
      "kes": 1787,
      "ping": 1788,
      "tly": 1789,
      "under": 1790,
      "Ġtra": 1791,
      "Ġbig": 1792,
      "Ġcross": 1793,
      "ider": 1794,
      "leur": 1795,
      "aning": 1796,
      "eter": 1797,
      "Ġshad": 1798,
      "Ġneck": 1799,
      "anged": 1800,
      "Ġsuch": 1801,
      "ĠEvery": 1802,
      "Ġdays": 1803,
      "Ġparents": 1804,
      "Ġton": 1805,
      "Ġtask": 1806,
      "ĠSke": 1807,
      "ĠCrookshanks": 1808,
      "Ġheads": 1809,
      "Ġspell": 1810,
      "Ġwaiting": 1811,
      "Ġdropped": 1812,
      "rified": 1813,
      "fl": 1814,
      "mb": 1815,
      "reme": 1816,
      "Ġodd": 1817,
      "Ġcatch": 1818,
      "Ġlay": 1819,
      "Ġsteps": 1820,
      "ĠSn": 1821,
      "ĠBuckbeak": 1822,
      "Ġexam": 1823,
      "Ġspoke": 1824,
      "ormous": 1825,
      "Ġtea": 1826,
      "Ġdied": 1827,
      "Ġcheck": 1828,
      "ĠDeath": 1829,
      "Ġglasses": 1830,
      "ps": 1831,
      "Ġwood": 1832,
      "Ġwitch": 1833,
      "eren": 1834,
      "Ġfact": 1835,
      "Ġthrew": 1836,
      "Ġseized": 1837,
      "Ġclosed": 1838,
      "Ġsoft": 1839,
      "ĠNo": 1840,
      "abin": 1841,
      "ibility": 1842,
      "Ġpocket": 1843,
      "cc": 1844,
      "ject": 1845,
      "pit": 1846,
      "Ġsumm": 1847,
      "Ġpie": 1848,
      "tering": 1849,
      "ĠOn": 1850,
      "uffle": 1851,
      "ĠChristmas": 1852,
      "ĠQuirrell": 1853,
      "ĠMuggles": 1854,
      "Ġdoesn": 1855,
      "Ex": 1856,
      "Just": 1857,
      "ces": 1858,
      "its": 1859,
      "Ġnumb": 1860,
      "Ġran": 1861,
      "ĠAzkaban": 1862,
      "early": 1863,
      "ĠTHE": 1864,
      "ĠNow": 1865,
      "Ġhurt": 1866,
      "Ġsnapped": 1867,
      "ĠMyrtle": 1868,
      "Ġanswer": 1869,
      "Ġseveral": 1870,
      "work": 1871,
      "arlie": 1872,
      "Ġbody": 1873,
      "Ġdanger": 1874,
      "Ġmem": 1875,
      "Ġthird": 1876,
      "esc": 1877,
      "alm": 1878,
      "urm": 1879,
      "ĠPeeves": 1880,
      "Ġshot": 1881,
      "Ġleast": 1882,
      "ush": 1883,
      "ormit": 1884,
      "Ġmanaged": 1885,
      "Ġwalking": 1886,
      "Ġstrange": 1887,
      "ĠMadame": 1888,
      "Ġfriends": 1889,
      "board": 1890,
      "ON": 1891,
      "puff": 1892,
      "ub": 1893,
      "vo": 1894,
      "Ġround": 1895,
      "Ġtou": 1896,
      "Ġsne": 1897,
      "Ġwide": 1898,
      "ason": 1899,
      "iting": 1900,
      "Ġland": 1901,
      "Ġlake": 1902,
      "Ġpur": 1903,
      "Ġform": 1904,
      "cted": 1905,
      "Ġchance": 1906,
      "reatures": 1907,
      "Ġpret": 1908,
      "Ġgiant": 1909,
      "ĠMagical": 1910,
      "Ġlesson": 1911,
      "Ġweek": 1912,
      "Ġarrived": 1913,
      "ĠSkeeter": 1914,
      "ufflepuff": 1915,
      "sc": 1916,
      "sme": 1917,
      "vent": 1918,
      "Ġluck": 1919,
      "icking": 1920,
      "Ġsub": 1921,
      "aper": 1922,
      "Ġunderstand": 1923,
      "Ġfinished": 1924,
      "Ġreturned": 1925,
      "Ġceiling": 1926,
      "remely": 1927,
      "smeade": 1928,
      "bot": 1929,
      "sent": 1930,
      "Ġsus": 1931,
      "Ġcabin": 1932,
      "Ġph": 1933,
      "Ġbell": 1934,
      "imag": 1935,
      "Ġstupid": 1936,
      "amm": 1937,
      "ĠAl": 1938,
      "oney": 1939,
      "Ġstarting": 1940,
      "Ġchampions": 1941,
      "eamus": 1942,
      "Ġtonight": 1943,
      "Dobby": 1944,
      "In": 1945,
      "said": 1946,
      "Ġtiny": 1947,
      "Ġadded": 1948,
      "Ġwing": 1949,
      "Ġgh": 1950,
      "illed": 1951,
      "Ġshow": 1952,
      "ĠBill": 1953,
      "blet": 1954,
      "Ġknows": 1955,
      "Ġquest": 1956,
      "ĠNor": 1957,
      "Ġhappy": 1958,
      "ĠCharm": 1959,
      "Ġwalls": 1960,
      "Ġlistening": 1961,
      "Ġdragon": 1962,
      "Ġfight": 1963,
      "isk": 1964,
      "rought": 1965,
      "Ġwhether": 1966,
      "Ġspr": 1967,
      "them": 1968,
      "Ġenormous": 1969,
      "ĠPettigrew": 1970,
      "Ġgolden": 1971,
      "Ġdifficul": 1972,
      "visibility": 1973,
      "Ġgasped": 1974,
      "Ġcontinued": 1975,
      "Ġcoll": 1976,
      "Ġdet": 1977,
      "Ġmap": 1978,
      "Ġpair": 1979,
      "Ġpicked": 1980,
      "Ġpict": 1981,
      "Ġyoung": 1982,
      "eth": 1983,
      "rily": 1984,
      "amed": 1985,
      "ĠRita": 1986,
      "Ġrunning": 1987,
      "Ġago": 1988,
      "Ġspl": 1989,
      "Ġflat": 1990,
      "eneath": 1991,
      "ertainly": 1992,
      "Ġdifferent": 1993,
      "more": 1994,
      "sp": 1995,
      "Ġz": 1996,
      "Ġtail": 1997,
      "Ġweren": 1998,
      "inging": 1999,
      "ren": 2000,
      "Ġfer": 2001,
      "Ġokay": 2002,
      "aters": 2003,
      "Ġnorm": 2004,
      "ĠThat": 2005,
      "Ġalso": 2006,
      "Ġscr": 2007,
      "ĠEr": 2008,
      "ĠHogsmeade": 2009,
      "ĠBludg": 2010,
      "Ġextremely": 2011,
      "Good": 2012,
      "Look": 2013,
      "On": 2014,
      "fast": 2015,
      "part": 2016,
      "rown": 2017,
      "Ġwild": 2018,
      "Ġbes": 2019,
      "Ġfunny": 2020,
      "Then": 2021,
      "ically": 2022,
      "Ġclut": 2023,
      "orth": 2024,
      "ousand": 2025,
      "ested": 2026,
      "Ġsmiling": 2027,
      "inner": 2028,
      "Ġemer": 2029,
      "ĠSnitch": 2030,
      "Ah": 2031,
      "CHA": 2032,
      "Where": 2033,
      "inted": 2034,
      "Ġhop": 2035,
      "ishing": 2036,
      "apt": 2037,
      "Ġpract": 2038,
      "Ġhuge": 2039,
      "ĠGranger": 2040,
      "brary": 2041,
      "AR": 2042,
      "PTER": 2043,
      "back": 2044,
      "fin": 2045,
      "ĠU": 2046,
      "ĠĊ": 2047,
      "Ġson": 2048,
      "Ġbar": 2049,
      "Ġburn": 2050,
      "Ġmir": 2051,
      "Ġlate": 2052,
      "ann": 2053,
      "Ġyer": 2054,
      "oman": 2055,
      "ĠSeamus": 2056,
      "ouldn": 2057,
      "Ġready": 2058,
      "aining": 2059,
      "ĠFleur": 2060,
      "geon": 2061,
      "Ġexpe": 2062,
      "Ġblood": 2063,
      "Ġunc": 2064,
      "Ġgray": 2065,
      "Ġdisc": 2066,
      "azing": 2067,
      "ixed": 2068,
      "Ġtrees": 2069,
      "ĠFirebolt": 2070,
      "CHAPTER": 2071,
      "Sh": 2072,
      "bably": 2073,
      "face": 2074,
      "mit": 2075,
      "rank": 2076,
      "ta": 2077,
      "arly": 2078,
      "Ġbath": 2079,
      "ĠHufflepuff": 2080,
      "Ġcir": 2081,
      "Ġdormit": 2082,
      "Ġeas": 2083,
      "anted": 2084,
      "Ġquill": 2085,
      "Ġroared": 2086,
      "Ġturning": 2087,
      "Ġdoors": 2088,
      "Ġleaving": 2089,
      "Ġclimbed": 2090,
      "Ġcarrying": 2091,
      "Ġsummer": 2092,
      "Ġghost": 2093,
      "Ġer": 2094,
      "Ġ..": 2095,
      "het": 2096,
      "Ġsorry": 2097,
      "Ġwarn": 2098,
      "orrow": 2099,
      "ident": 2100,
      "Ġthin": 2101,
      "Ġthrow": 2102,
      "anced": 2103,
      "Ġstro": 2104,
      "vers": 2105,
      "rop": 2106,
      "Ġlead": 2107,
      "Ġworld": 2108,
      "Ġplat": 2109,
      "Ġconc": 2110,
      "ĠCharlie": 2111,
      "lessly": 2112,
      "claw": 2113,
      "Ġsnake": 2114,
      "Ġkilled": 2115,
      "raco": 2116,
      "Ġbeside": 2117,
      "Pot": 2118,
      "master": 2119,
      "Ġesc": 2120,
      "ising": 2121,
      "Ġcre": 2122,
      "Ġlying": 2123,
      "Ġsafe": 2124,
      "ager": 2125,
      "Ġreckon": 2126,
      "ĠPar": 2127,
      "unch": 2128,
      "ices": 2129,
      "udo": 2130,
      "Ġmeant": 2131,
      "arks": 2132,
      "ospit": 2133,
      "Ġbecame": 2134,
      "Ġbottle": 2135,
      "Ġfinally": 2136,
      "Ġflying": 2137,
      "avenclaw": 2138,
      "ospital": 2139,
      "kin": 2140,
      "Ġtent": 2141,
      "Ġtree": 2142,
      "Ġbrought": 2143,
      "ĠHer": 2144,
      "Ġcase": 2145,
      "lee": 2146,
      "Ġmaster": 2147,
      "Ġport": 2148,
      "ancing": 2149,
      "Ġinform": 2150,
      "cho": 2151,
      "rol": 2152,
      "artment": 2153,
      "Ġsky": 2154,
      "Ġwindows": 2155,
      "retched": 2156,
      "Ġbox": 2157,
      "Ġflew": 2158,
      "com": 2159,
      "iver": 2160,
      "long": 2161,
      "use": 2162,
      "orld": 2163,
      "Ġpath": 2164,
      "Ġforgot": 2165,
      "Ġvan": 2166,
      "ĠNot": 2167,
      "Ġrose": 2168,
      "Ġwands": 2169,
      "arely": 2170,
      "Ġevening": 2171,
      "Ġbroomstick": 2172,
      "Ġhorrible": 2173,
      "Ġdoub": 2174,
      "Ġhissed": 2175,
      "ker": 2176,
      "rup": 2177,
      "were": 2178,
      "zing": 2179,
      "Ġimm": 2180,
      "Ġbent": 2181,
      "Ġbeneath": 2182,
      "Ġdun": 2183,
      "Ġdream": 2184,
      "ays": 2185,
      "ters": 2186,
      "Ġlibrary": 2187,
      "ĠTri": 2188,
      "Ġappro": 2189,
      "Ġsuppose": 2190,
      "ĠJust": 2191,
      "Ġrealized": 2192,
      "Do": 2193,
      "Ġill": 2194,
      "Ġact": 2195,
      "Ġahead": 2196,
      "inting": 2197,
      "Ġco": 2198,
      "Ġcut": 2199,
      "Ġgrabb": 2200,
      "Ġelf": 2201,
      "ired": 2202,
      "ĠSee": 2203,
      "Ġbackward": 2204,
      "Ġwhose": 2205,
      "orting": 2206,
      "aped": 2207,
      "Ġdeath": 2208,
      "Ġwalk": 2209,
      "Ġstrong": 2210,
      "Ġhardly": 2211,
      "Ġclassroom": 2212,
      "Ġjob": 2213,
      "Ġpale": 2214,
      "Ġedge": 2215,
      "Ġcompletely": 2216,
      "Let": 2217,
      "come": 2218,
      "Ġtow": 2219,
      "itw": 2220,
      "Ġgra": 2221,
      "Ġev": 2222,
      "Ġass": 2223,
      "ĠSo": 2224,
      "isted": 2225,
      "Ġyourself": 2226,
      "Ġtrans": 2227,
      "Ġothers": 2228,
      "avor": 2229,
      "Ġangry": 2230,
      "Ġbroke": 2231,
      "Ġgirls": 2232,
      "Ġinstead": 2233,
      "Ġfaces": 2234,
      "Ġcovered": 2235,
      "Ġcloser": 2236,
      "ĠTriwizard": 2237,
      "Be": 2238,
      "Ġtears": 2239,
      "arrow": 2240,
      "Ġfright": 2241,
      "Ġopp": 2242,
      "ashing": 2243,
      "Ġgame": 2244,
      "Ġint": 2245,
      "oth": 2246,
      "omach": 2247,
      "Ġlooks": 2248,
      "Ġnote": 2249,
      "Ġexpress": 2250,
      "olid": 2251,
      "Ġteeth": 2252,
      "inned": 2253,
      "Ġbroken": 2254,
      "ĠArts": 2255,
      "Ġbreakfast": 2256,
      "Ġnumber": 2257,
      "Right": 2258,
      "ape": 2259,
      "du": 2260,
      "time": 2261,
      "Ġign": 2262,
      "Ġwit": 2263,
      "Ġwoman": 2264,
      "rets": 2265,
      "Ġfre": 2266,
      "Ġcol": 2267,
      "Ġinde": 2268,
      "Ġecho": 2269,
      "elf": 2270,
      "Ġpulling": 2271,
      "Ġdeser": 2272,
      "Ġangrily": 2273,
      "Ġteachers": 2274,
      "Ġpossible": 2275,
      "Ġheavy": 2276,
      "Black": 2277,
      "itwick": 2278,
      "For": 2279,
      "apped": 2280,
      "gain": 2281,
      "ik": 2282,
      "ich": 2283,
      "vati": 2284,
      "Ġtor": 2285,
      "Ġtoday": 2286,
      "ĠHouse": 2287,
      "Ġpat": 2288,
      "Ġpan": 2289,
      "Ġstory": 2290,
      "iew": 2291,
      "ĠNick": 2292,
      "Ġtwenty": 2293,
      "olin": 2294,
      "Ġneeded": 2295,
      "Ġcrack": 2296,
      "Ġstepped": 2297,
      "Ġextra": 2298,
      "Ġobv": 2299,
      "Potter": 2300,
      "Ġportra": 2301,
      "aily": 2302,
      "Ġve": 2303,
      "Ġfood": 2304,
      "Ġcauldron": 2305,
      "oring": 2306,
      "Ġpotion": 2307,
      "Ġnice": 2308,
      "Ġeat": 2309,
      "Ġshall": 2310,
      "Ġmyself": 2311,
      "Ġblue": 2312,
      "Ġchest": 2313,
      "Ġnearer": 2314,
      "Ġboys": 2315,
      "ĠStone": 2316,
      "Ġlaughing": 2317,
      "Ġfifty": 2318,
      "Ġtroll": 2319,
      "Ġsix": 2320,
      "Ġpushed": 2321,
      "Ġbelow": 2322,
      "ĠRavenclaw": 2323,
      "ĠDraco": 2324,
      "pell": 2325,
      "Ġjumped": 2326,
      "Ġworried": 2327,
      "Ġsays": 2328,
      "Ġgrinning": 2329,
      "ĠChamber": 2330,
      "Ġdarkness": 2331,
      "Ġgiving": 2332,
      "aughter": 2333,
      "ĠDean": 2334,
      "Ġfuriously": 2335,
      "Ġdirection": 2336,
      "Ġdormitory": 2337,
      "Did": 2338,
      "joy": 2339,
      "oss": 2340,
      "Ġbas": 2341,
      "Ġmis": 2342,
      "Ġmiddle": 2343,
      "Ġnarrow": 2344,
      "uth": 2345,
      "amb": 2346,
      "ĠProp": 2347,
      "ĠAt": 2348,
      "acing": 2349,
      "ĠLudo": 2350,
      "ept": 2351,
      "ĠWeasleys": 2352,
      "Ġconf": 2353,
      "Ġcons": 2354,
      "ively": 2355,
      "Ġdiary": 2356,
      "ĠSlytherins": 2357,
      "ĠInvisibility": 2358,
      "Ġpleased": 2359,
      "Ġguard": 2360,
      "Ġnervously": 2361,
      "ĠCloak": 2362,
      "Can": 2363,
      "fense": 2364,
      "ris": 2365,
      "rit": 2366,
      "Ġtournament": 2367,
      "ination": 2368,
      "Ġsimp": 2369,
      "Ġhung": 2370,
      "Ġpow": 2371,
      "cks": 2372,
      "Ġstomach": 2373,
      "riff": 2374,
      "urse": 2375,
      "ĠSec": 2376,
      "ĠWorld": 2377,
      "Ġlearn": 2378,
      "ĠFang": 2379,
      "Ġworry": 2380,
      "Ġworse": 2381,
      "Ġwants": 2382,
      "ĠOne": 2383,
      "ĠEaters": 2384,
      "Ġhole": 2385,
      "Ġsounded": 2386,
      "Ġwaited": 2387,
      "Ġvisit": 2388,
      "Ġmirror": 2389,
      "AN": 2390,
      "uc": 2391,
      "ubb": 2392,
      "Ġsun": 2393,
      "Ġhidden": 2394,
      "ingle": 2395,
      "Ġfear": 2396,
      "Ġcalm": 2397,
      "Ġinc": 2398,
      "Ġstep": 2399,
      "ĠMarge": 2400,
      "Ġreason": 2401,
      "ĠDaily": 2402,
      "Ġanx": 2403,
      "ĠColin": 2404,
      "emb": 2405,
      "Ġherself": 2406,
      "ife": 2407,
      "Ġpost": 2408,
      "Ġdeal": 2409,
      "Ġperhaps": 2410,
      "Ġdisappeared": 2411,
      "Ġ......": 2412,
      "Are": 2413,
      "Neville": 2414,
      "gl": 2415,
      "ike": 2416,
      "ls": 2417,
      "noon": 2418,
      "Ġtall": 2419,
      "Ġhospital": 2420,
      "Ġfine": 2421,
      "Ġca": 2422,
      "llent": 2423,
      "Ġdad": 2424,
      "Ġthro": 2425,
      "Ġled": 2426,
      "Ġnast": 2427,
      "Ġeff": 2428,
      "ĠSh": 2429,
      "Ġshrie": 2430,
      "Ġknocked": 2431,
      "elve": 2432,
      "ular": 2433,
      "there": 2434,
      "Ġworking": 2435,
      "Ġaren": 2436,
      "Ġhappen": 2437,
      "Ġspeed": 2438,
      "ocol": 2439,
      "ĠFlitwick": 2440,
      "Ġrubb": 2441,
      "Ġsurprise": 2442,
      "Ġpiece": 2443,
      "Ġdifficult": 2444,
      "Ġnormal": 2445,
      "Ġindeed": 2446,
      "ĠProphet": 2447,
      "LE": 2448,
      "cause": 2449,
      "gr": 2450,
      "gar": 2451,
      "ghed": 2452,
      "Ġavo": 2453,
      "Ġhot": 2454,
      "Ġholid": 2455,
      "Ġfixed": 2456,
      "Ġdinner": 2457,
      "ads": 2458,
      "irt": 2459,
      "irth": 2460,
      "illow": 2461,
      "Ġshop": 2462,
      "Ġupstairs": 2463,
      "Ġroo": 2464,
      "ault": 2465,
      "Ġworked": 2466,
      "ogriff": 2467,
      "itely": 2468,
      "Ġknees": 2469,
      "Ġappl": 2470,
      "Ġbottom": 2471,
      "Ġminute": 2472,
      "Ġchampion": 2473,
      "Ġclearly": 2474,
      "strang": 2475,
      "Ġstreet": 2476,
      "ippogriff": 2477,
      "urmstrang": 2478,
      "ocolate": 2479,
      "Mad": 2480,
      "Sirius": 2481,
      "bat": 2482,
      "par": 2483,
      "what": 2484,
      "ĉĉ": 2485,
      "Ġterm": 2486,
      "Ġadd": 2487,
      "Ġwin": 2488,
      "Ġfig": 2489,
      "Ġpaper": 2490,
      "Ġgri": 2491,
      "agg": 2492,
      "Ġrepe": 2493,
      "Ġforced": 2494,
      "ains": 2495,
      "uss": 2496,
      "ushing": 2497,
      "Ġallowed": 2498,
      "ĠFrank": 2499,
      "Ġnobody": 2500,
      "Ġblank": 2501,
      "Ġslipped": 2502,
      "Ġrolled": 2503,
      "Ġimport": 2504,
      "Ġmonth": 2505,
      "Ġsharply": 2506,
      "Ġgrabbed": 2507,
      "Ġexpression": 2508,
      "Ġportrait": 2509,
      "Of": 2510,
      "eep": 2511,
      "have": 2512,
      "ian": 2513,
      "ium": 2514,
      "ru": 2515,
      "ye": 2516,
      "into": 2517,
      "Ġfur": 2518,
      "Ġpink": 2519,
      "otts": 2520,
      "steps": 2521,
      "irm": 2522,
      "Ġaside": 2523,
      "ĠDurmstrang": 2524,
      "Ġann": 2525,
      "Ġforget": 2526,
      "orted": 2527,
      "Ġalive": 2528,
      "Ġsugg": 2529,
      "though": 2530,
      "Ġsmiled": 2531,
      "Ġhappily": 2532,
      "Ġsilent": 2533,
      "Ġowls": 2534,
      "ĠYOU": 2535,
      "Ġdragons": 2536,
      "Ġcarefully": 2537,
      "icularly": 2538,
      "ammed": 2539,
      "Ġvanished": 2540,
      "Every": 2541,
      "bs": 2542,
      "Ġir": 2543,
      "Ġapart": 2544,
      "edi": 2545,
      "Ġhanging": 2546,
      "Ġfro": 2547,
      "Ġmur": 2548,
      "Ġpri": 2549,
      "ote": 2550,
      "Ġsear": 2551,
      "ĠBul": 2552,
      "ĠGo": 2553,
      "Ġnodded": 2554,
      "aux": 2555,
      "Ġpol": 2556,
      "thur": 2557,
      "Ġlonger": 2558,
      "Ġhasn": 2559,
      "Ġproper": 2560,
      "Ġprobably": 2561,
      "Ġdecided": 2562,
      "Ġshadow": 2563,
      "Ġpicture": 2564,
      "ĠBludger": 2565,
      "Ch": 2566,
      "OT": 2567,
      "Very": 2568,
      "ald": 2569,
      "lin": 2570,
      "set": 2571,
      "Ġimag": 2572,
      "arg": 2573,
      "atur": 2574,
      "Ġmention": 2575,
      "Ġline": 2576,
      "Ġlaughter": 2577,
      "Ġstaff": 2578,
      "aled": 2579,
      "ĠWell": 2580,
      "Ġfrown": 2581,
      "ĠTower": 2582,
      "Ġspider": 2583,
      "Ġcho": 2584,
      "ogn": 2585,
      "Ġseconds": 2586,
      "Ġfinger": 2587,
      "Ġhours": 2588,
      "Ġclosely": 2589,
      "Ġbathroom": 2590,
      "Ġthroat": 2591,
      "Lupin": 2592,
      "RE": 2593,
      "See": 2594,
      "bus": 2595,
      "down": 2596,
      "iant": 2597,
      "tor": 2598,
      "ury": 2599,
      "iness": 2600,
      "inary": 2601,
      "oul": 2602,
      "Ġbarely": 2603,
      "Ġcuri": 2604,
      "Ġinn": 2605,
      "Ġseven": 2606,
      "omeone": 2607,
      "Ġcloud": 2608,
      "Ġsol": 2609,
      "Ġbrother": 2610,
      "clock": 2611,
      "Ġpassage": 2612,
      "Ġforehead": 2613,
      "ĠĠĠĠ": 2614,
      "ĠWhy": 2615,
      "Ġdangerous": 2616,
      "Ġpretend": 2617,
      "bottom": 2618,
      "Ġquestion": 2619,
      "irthday": 2620,
      "batons": 2621,
      "Get": 2622,
      "Gryffindor": 2623,
      "One": 2624,
      "Your": 2625,
      "rans": 2626,
      "vol": 2627,
      "word": 2628,
      "Ġtight": 2629,
      "Ġtip": 2630,
      "Ġduring": 2631,
      "Ġmid": 2632,
      "Ġmoney": 2633,
      "Ġpun": 2634,
      "aded": 2635,
      "Ġnone": 2636,
      "Ġele": 2637,
      "Ġeager": 2638,
      "ĠDad": 2639,
      "using": 2640,
      "Ġfeast": 2641,
      "Ġscared": 2642,
      "Ġroll": 2643,
      "Ġsomewhere": 2644,
      "Ġvoices": 2645,
      "ĠPotions": 2646,
      "Ġenjoy": 2647,
      "ations": 2648,
      "Ġspeaking": 2649,
      "aze": 2650,
      "Ġfamil": 2651,
      "ĠBeaux": 2652,
      "Ġmarble": 2653,
      "Ġgrowled": 2654,
      "Ġwitches": 2655,
      "gainst": 2656,
      "Ġnasty": 2657,
      "door": 2658,
      "she": 2659,
      "Ġfa": 2660,
      "ittering": 2661,
      "Ġdep": 2662,
      "ĠSever": 2663,
      "Ġreg": 2664,
      "ĠPat": 2665,
      "Ġshr": 2666,
      "Ġleapt": 2667,
      "Ġanyway": 2668,
      "their": 2669,
      "Ġslid": 2670,
      "ocking": 2671,
      "Ġteach": 2672,
      "ĠEx": 2673,
      "Ġafternoon": 2674,
      "Ġattention": 2675,
      "Ġprot": 2676,
      "ĠMinister": 2677,
      "Ġadv": 2678,
      "Ġwonder": 2679,
      "Ġspotted": 2680,
      "Ġexcitedly": 2681,
      "ĠBeauxbatons": 2682,
      "AT": 2683,
      "Go": 2684,
      "ments": 2685,
      "pic": 2686,
      "ring": 2687,
      "sm": 2688,
      "Ġtightly": 2689,
      "Ġsingle": 2690,
      "Ġhippogriff": 2691,
      "Ġbow": 2692,
      "Ġfilled": 2693,
      "ides": 2694,
      "Ġdress": 2695,
      "Ġdrew": 2696,
      "Ġlunch": 2697,
      "Ġgle": 2698,
      "ane": 2699,
      "stri": 2700,
      "vey": 2701,
      "ute": 2702,
      "Ġasleep": 2703,
      "als": 2704,
      "arty": 2705,
      "Ġliving": 2706,
      "Ġvill": 2707,
      "ĠNearly": 2708,
      "Ġplaced": 2709,
      "osite": 2710,
      "avender": 2711,
      "Ġtrust": 2712,
      "Ġgrass": 2713,
      "ĠGryffindors": 2714,
      "Ġdesper": 2715,
      "azed": 2716,
      "Ġfollowing": 2717,
      "Ġlaughed": 2718,
      "Ġscreaming": 2719,
      "Ġbrightly": 2720,
      "ĠHeadless": 2721,
      "Ġexpected": 2722,
      "from": 2723,
      "Ġpurple": 2724,
      "Ġforgotten": 2725,
      "),": 2726,
      "oes": 2727,
      "arled": 2728,
      "ingly": 2729,
      "Ġfain": 2730,
      "Ġfavor": 2731,
      "Ġcou": 2732,
      "Ġcried": 2733,
      "Ġcertainly": 2734,
      "Ġmay": 2735,
      "Ġstretched": 2736,
      "Ġwhist": 2737,
      "Ġrelie": 2738,
      "Ġshowed": 2739,
      "ĠAgainst": 2740,
      "arth": 2741,
      "icorn": 2742,
      "Ġjump": 2743,
      "Ġweak": 2744,
      "eling": 2745,
      "ongbottom": 2746,
      "Ġseeing": 2747,
      "Ġplan": 2748,
      "Ġtwelve": 2749,
      "ĠCho": 2750,
      "Ġcheer": 2751,
      "Ġterrible": 2752,
      "Ġseats": 2753,
      "Ġheavily": 2754,
      "Ġtouch": 2755,
      "ĠErn": 2756,
      "iktor": 2757,
      "Moody": 2758,
      "Percy": 2759,
      "af": 2760,
      "book": 2761,
      "fort": 2762,
      "iar": 2763,
      "tled": 2764,
      "yond": 2765,
      "Ġhum": 2766,
      "Ġbirthday": 2767,
      "Ġcard": 2768,
      "Ġcage": 2769,
      "iders": 2770,
      "Ġink": 2771,
      "Ġbeyond": 2772,
      "Ġitself": 2773,
      "entr": 2774,
      "Ġrel": 2775,
      "Ġgoblet": 2776,
      "uding": 2777,
      "Ġjer": 2778,
      "ĠTwo": 2779,
      "ongue": 2780,
      "isten": 2781,
      "Ġworst": 2782,
      "Ġrock": 2783,
      "Ġtruth": 2784,
      "been": 2785,
      "because": 2786,
      "about": 2787,
      "Weasley": 2788,
      "Ġdrink": 2789,
      "apping": 2790,
      "Ġprom": 2791,
      "blood": 2792,
      "Ġperfect": 2793,
      "Ġtremb": 2794,
      "Ġplaying": 2795,
      "rivet": 2796,
      "Ġcupboard": 2797,
      "Ġsoftly": 2798,
      "Ġmemory": 2799,
      "Ġdungeon": 2800,
      "Ġrepeated": 2801,
      "His": 2802,
      "could": 2803,
      "fig": 2804,
      "ground": 2805,
      "Ġslee": 2806,
      "Ġhiding": 2807,
      "Ġbra": 2808,
      "ison": 2809,
      "Ġcry": 2810,
      "Ġind": 2811,
      "Ġur": 2812,
      "Ġleaned": 2813,
      "aky": 2814,
      "Ġlif": 2815,
      "aces": 2816,
      "Ġspir": 2817,
      "ogg": 2818,
      "ogra": 2819,
      "Ġflo": 2820,
      "Ġdefin": 2821,
      "Ġsmell": 2822,
      "Ġglanced": 2823,
      "Ġrememb": 2824,
      "pleas": 2825,
      "Ġstudent": 2826,
      "Ġnews": 2827,
      "Ġfamous": 2828,
      "Ġlisten": 2829,
      "Ġscarlet": 2830,
      "Ġbuy": 2831,
      "Ġfootsteps": 2832,
      "Ġwondering": 2833,
      "Ġcrossed": 2834,
      "Ġphot": 2835,
      "Ġclutching": 2836,
      "Ġcirc": 2837,
      "ST": 2838,
      "bed": 2839,
      "Ġaff": 2840,
      "Ġsize": 2841,
      "arently": 2842,
      "nded": 2843,
      "Ġfat": 2844,
      "Ġtom": 2845,
      "Ġdri": 2846,
      "Ġmoun": 2847,
      "Ġinches": 2848,
      "Ġbeard": 2849,
      "ĠSpr": 2850,
      "aying": 2851,
      "tern": 2852,
      "ĠFat": 2853,
      "Ġknown": 2854,
      "Ġlive": 2855,
      "antic": 2856,
      "Ġusually": 2857,
      "Ġtrue": 2858,
      "unned": 2859,
      "Ġhurrying": 2860,
      "Ġstrugg": 2861,
      "ĠPeter": 2862,
      "Ġskin": 2863,
      "Ġjoined": 2864,
      "Ġletters": 2865,
      "Ġstrode": 2866,
      "ĠParvati": 2867,
      "Ġapproached": 2868,
      "Ġopposite": 2869,
      "ucius": 2870,
      "Is": 2871,
      "Re": 2872,
      "every": 2873,
      "year": 2874,
      "zen": 2875,
      "Ġwarm": 2876,
      "Ġbother": 2877,
      "Ġocc": 2878,
      "itted": 2879,
      "Ġcand": 2880,
      "Ġdie": 2881,
      "Ġgard": 2882,
      "esting": 2883,
      "Ġeh": 2884,
      "Ġstat": 2885,
      "ĠMiss": 2886,
      "agon": 2887,
      "again": 2888,
      "Ġreach": 2889,
      "ĠPrivet": 2890,
      "Ġshowing": 2891,
      "people": 2892,
      "ander": 2893,
      "inked": 2894,
      "Ġchanged": 2895,
      "Ġglad": 2896,
      "Ġbecome": 2897,
      "Ġsecret": 2898,
      "Ġpresent": 2899,
      "Ġhelped": 2900,
      "Ġskrew": 2901,
      "Ġjoin": 2902,
      "Ġhalfway": 2903,
      "Ġdementor": 2904,
      "Ġrecogn": 2905,
      "Ġfacing": 2906,
      "Ġnervous": 2907,
      "Ġsuspic": 2908,
      "Ġplatform": 2909,
      "Ġdoubt": 2910,
      "Ġholidays": 2911,
      "Ġimportant": 2912,
      "ĠBulgar": 2913,
      "Okay": 2914,
      "ges": 2915,
      "jured": 2916,
      "zy": 2917,
      "Ġsick": 2918,
      "Ġworth": 2919,
      "Ġcent": 2920,
      "Ġmer": 2921,
      "Ġmag": 2922,
      "Ġlock": 2923,
      "add": 2924,
      "Ġbew": 2925,
      "Ġbeaming": 2926,
      "ĠMark": 2927,
      "ĠDrive": 2928,
      "ĠWith": 2929,
      "ĠCurse": 2930,
      "Ġgobl": 2931,
      "Ġnotice": 2932,
      "raid": 2933,
      "Ġview": 2934,
      "izing": 2935,
      "Ġanymore": 2936,
      "ult": 2937,
      "Ġspent": 2938,
      "this": 2939,
      "Ġheadmaster": 2940,
      "atching": 2941,
      "Ġord": 2942,
      "Ġswung": 2943,
      "Ġdisg": 2944,
      "Ġshouldn": 2945,
      "Ġwaving": 2946,
      "Ġcarri": 2947,
      "ibly": 2948,
      "Ġparticularly": 2949,
      "Ġattacked": 2950,
      "Ġscreamed": 2951,
      "Ġsurprised": 2952,
      "Ġfurious": 2953,
      "ĠNorris": 2954,
      "Ġpractice": 2955,
      "Ġthrowing": 2956,
      "Ġeagerly": 2957,
      "ĠSprout": 2958,
      "Fred": 2959,
      "Lockhart": 2960,
      "und": 2961,
      "Ġtem": 2962,
      "erth": 2963,
      "around": 2964,
      "ones": 2965,
      "Ġfun": 2966,
      "ition": 2967,
      "Ġcop": 2968,
      "Ġmass": 2969,
      "Ġpot": 2970,
      "Ġpatch": 2971,
      "adium": 2972,
      "ooch": 2973,
      "Ġyeah": 2974,
      "Ġearth": 2975,
      "Ġones": 2976,
      "Ġwhom": 2977,
      "Ġret": 2978,
      "Ġwithin": 2979,
      "Ġshining": 2980,
      "Ġrain": 2981,
      "ĠWizard": 2982,
      "ĠCreatures": 2983,
      "ĠBarty": 2984,
      "earing": 2985,
      "ĠLee": 2986,
      "arked": 2987,
      "ief": 2988,
      "Ġunless": 2989,
      "Ġmoon": 2990,
      "Ġimpati": 2991,
      "ĠStan": 2992,
      "Ġyellow": 2993,
      "attered": 2994,
      "ecause": 2995,
      "Ġcorridors": 2996,
      "Ġhomework": 2997,
      "Ġexpelled": 2998,
      "Ġinformation": 2999,
      "ĠSeeker": 3000,
      "Ġremembered": 3001,
      "Ġtomorrow": 3002,
      "aving": 3003,
      "didn": 3004,
      "ext": 3005,
      "eople": 3006,
      "ler": 3007,
      "pre": 3008,
      "something": 3009,
      "upp": 3010,
      "Ġserv": 3011,
      "Ġsense": 3012,
      "Ġwish": 3013,
      "Ġbat": 3014,
      "Ġble": 3015,
      "Ġbound": 3016,
      "Ġbird": 3017,
      "Ġfist": 3018,
      "Ġthrown": 3019,
      "ances": 3020,
      "Ġnine": 3021,
      "stood": 3022,
      "ution": 3023,
      "Ġasking": 3024,
      "ĠSorting": 3025,
      "key": 3026,
      "arted": 3027,
      "elius": 3028,
      "ĠTournament": 3029,
      "Ġblast": 3030,
      "Ġunicorn": 3031,
      "Ġsomehow": 3032,
      "new": 3033,
      "Ġkey": 3034,
      "ucked": 3035,
      "ĠQuaff": 3036,
      "Ġtables": 3037,
      "Ġputting": 3038,
      "Ġprefect": 3039,
      "Ġhurry": 3040,
      "amps": 3041,
      "Ġterrified": 3042,
      "Ġsnarled": 3043,
      "Ġcurse": 3044,
      "Mrs": 3045,
      "Ġweeks": 3046,
      "Ġexplain": 3047,
      "Ġseriously": 3048,
      "Ġpowerful": 3049,
      "Ġwooden": 3050,
      "Ġlanded": 3051,
      "Ġsubject": 3052,
      "Ġdeserted": 3053,
      "Ġobviously": 3054,
      "Ġcouple": 3055,
      "Ar": 3056,
      "bel": 3057,
      "cto": 3058,
      "just": 3059,
      "when": 3060,
      "Ġsank": 3061,
      "Ġhig": 3062,
      "nding": 3063,
      "reed": 3064,
      "Ġmaybe": 3065,
      "ooth": 3066,
      "Ġnames": 3067,
      "Ġeight": 3068,
      "irty": 3069,
      "ical": 3070,
      "ĠLe": 3071,
      "ĠLongbottom": 3072,
      "through": 3073,
      "Ġhanded": 3074,
      "Ġconvers": 3075,
      "Ġtwins": 3076,
      "Ġusing": 3077,
      "Ġbring": 3078,
      "uffy": 3079,
      "Ġwaved": 3080,
      "Ġremind": 3081,
      "Ġprep": 3082,
      "Ġstands": 3083,
      "Ġattem": 3084,
      "ection": 3085,
      "who": 3086,
      "Ġwondered": 3087,
      "Ġemerged": 3088,
      "Ġhoping": 3089,
      "Ġfrowning": 3090,
      "Ġvillage": 3091,
      "ertha": 3092,
      "Maybe": 3093,
      "aun": 3094,
      "bow": 3095,
      "fraid": 3096,
      "ial": 3097,
      "heard": 3098,
      "Ġhood": 3099,
      "Ġfool": 3100,
      "ĠHooch": 3101,
      "ories": 3102,
      "Ġdust": 3103,
      "Ġmere": 3104,
      "Ġlur": 3105,
      "Ġgrou": 3106,
      "Ġrang": 3107,
      "ĠLady": 3108,
      "ops": 3109,
      "Ġtwice": 3110,
      "rows": 3111,
      "ornelius": 3112,
      "Ġwriting": 3113,
      "Ġshouting": 3114,
      "ĠDefense": 3115,
      "ĠArthur": 3116,
      "Ġhundreds": 3117,
      "ING": 3118,
      "Ġpacked": 3119,
      "Ġcount": 3120,
      "Ġzoom": 3121,
      "Ġeasy": 3122,
      "Ġcolor": 3123,
      "Ġdefinitely": 3124,
      "Ġgarden": 3125,
      "ĠQuaffle": 3126,
      "Eye": 3127,
      "McGonagall": 3128,
      "OO": 3129,
      "go": 3130,
      "hair": 3131,
      "kn": 3132,
      "mos": 3133,
      "po": 3134,
      "zed": 3135,
      "Ġafraid": 3136,
      "itement": 3137,
      "Ġmess": 3138,
      "Ġlimp": 3139,
      "adly": 3140,
      "Ġgazing": 3141,
      "oose": 3142,
      "Ġstick": 3143,
      "rier": 3144,
      "illy": 3145,
      "Ġshock": 3146,
      "Ġrid": 3147,
      "Ġmeans": 3148,
      "ctly": 3149,
      "Ġpoor": 3150,
      "Ġposit": 3151,
      "Ġspread": 3152,
      "Ġflick": 3153,
      "Ġheaded": 3154,
      "ondon": 3155,
      "Ġswept": 3156,
      "ĠEven": 3157,
      "ugged": 3158,
      "place": 3159,
      "Ġkeeping": 3160,
      "roomstick": 3161,
      "Ġcarried": 3162,
      "ilder": 3163,
      "ĠYour": 3164,
      "Ġreading": 3165,
      "imbus": 3166,
      "wolf": 3167,
      "Ġtrick": 3168,
      "Ġdelight": 3169,
      "Ġconcentr": 3170,
      "Ġfigure": 3171,
      "Ġgleaming": 3172,
      ").": 3173,
      "-\"": 3174,
      "Listen": 3175,
      "Never": 3176,
      "THE": 3177,
      "VE": 3178,
      "ale": 3179,
      "ball": 3180,
      "oved": 3181,
      "uice": 3182,
      "Ġhoo": 3183,
      "ingotts": 3184,
      "Ġbogg": 3185,
      "Ġfirm": 3186,
      "Ġcreat": 3187,
      "lliv": 3188,
      "Ġhesit": 3189,
      "Ġpage": 3190,
      "ooped": 3191,
      "imly": 3192,
      "Ġstadium": 3193,
      "alle": 3194,
      "illing": 3195,
      "ĠBertha": 3196,
      "ude": 3197,
      "Ġliked": 3198,
      "ighed": 3199,
      "ĠLavender": 3200,
      "ĠTom": 3201,
      "ĠTrans": 3202,
      "ctions": 3203,
      "Ġgotten": 3204,
      "Ġcompl": 3205,
      "Ġgloom": 3206,
      "ĠOF": 3207,
      "Ġgrinned": 3208,
      "uffled": 3209,
      "ational": 3210,
      "Ġshoulders": 3211,
      "unno": 3212,
      "Ġentire": 3213,
      "uttered": 3214,
      "Ġwrit": 3215,
      "Ġimpress": 3216,
      "ocent": 3217,
      "Ġfollow": 3218,
      "ĠGringotts": 3219,
      "visible": 3220,
      "ivination": 3221,
      "Ġshortly": 3222,
      "Ġleaves": 3223,
      "bye": 3224,
      "Ġbellowed": 3225,
      "Ġimmedi": 3226,
      "Ġshrieked": 3227,
      "Ġapplause": 3228,
      "Ġirrit": 3229,
      "Ġtrembling": 3230,
      "\"'": 3231,
      "ND": 3232,
      "Slytherin": 3233,
      "Voldemort": 3234,
      "Winky": 3235,
      "cting": 3236,
      "ixt": 3237,
      "ipping": 3238,
      "oken": 3239,
      "pro": 3240,
      "rust": 3241,
      "val": 3242,
      "well": 3243,
      "Ġ1": 3244,
      "ĠUn": 3245,
      "Ġhast": 3246,
      "Ġhang": 3247,
      "Ġbang": 3248,
      "lease": 3249,
      "Ġdare": 3250,
      "Ġmus": 3251,
      "Ġpin": 3252,
      "Ġpump": 3253,
      "Ġstation": 3254,
      "aling": 3255,
      "terly": 3256,
      "Ġkicked": 3257,
      "inding": 3258,
      "gelin": 3259,
      "ache": 3260,
      "els": 3261,
      "Ġsobb": 3262,
      "Ġspiders": 3263,
      "Ġunpleas": 3264,
      "ĠViktor": 3265,
      "Ġthanks": 3266,
      "Ġbrand": 3267,
      "Ġbrown": 3268,
      "ĠOlliv": 3269,
      "Ġarg": 3270,
      "Ġenvel": 3271,
      "awkes": 3272,
      "Ġwizarding": 3273,
      "overed": 3274,
      "Ġperform": 3275,
      "tains": 3276,
      "Ġdeeply": 3277,
      "Ġrules": 3278,
      "Ġlucky": 3279,
      "Ġfighting": 3280,
      "ĠSecrets": 3281,
      "ograph": 3282,
      "gelina": 3283,
      "Dudley": 3284,
      "Hog": 3285,
      "LL": 3286,
      "Pet": 3287,
      "bble": 3288,
      "bidden": 3289,
      "faced": 3290,
      "know": 3291,
      "Ġwake": 3292,
      "erhaps": 3293,
      "Ġhon": 3294,
      "Ġbought": 3295,
      "ates": 3296,
      "asc": 3297,
      "asure": 3298,
      "itched": 3299,
      "Ġcro": 3300,
      "Ġcreatures": 3301,
      "orc": 3302,
      "Ġmen": 3303,
      "Ġlocked": 3304,
      "Ġpu": 3305,
      "Ġperm": 3306,
      "Ġbeat": 3307,
      "othes": 3308,
      "oming": 3309,
      "ĠIm": 3310,
      "ety": 3311,
      "Ġhalt": 3312,
      "Ġshiver": 3313,
      "ĠWas": 3314,
      "blem": 3315,
      "ants": 3316,
      "ĠGalle": 3317,
      "ela": 3318,
      "ified": 3319,
      "Ġfeather": 3320,
      "Ġchange": 3321,
      "Ġchamber": 3322,
      "Ġchocolate": 3323,
      "Ġknowing": 3324,
      "ĠNimbus": 3325,
      "then": 3326,
      "Ġsomebody": 3327,
      "ĠOh": 3328,
      "Ġspect": 3329,
      "Ġappear": 3330,
      "dding": 3331,
      "Ġharder": 3332,
      "Ġsnow": 3333,
      "Ġearly": 3334,
      "Ġwhisper": 3335,
      "Ġbreaking": 3336,
      "Ġlessons": 3337,
      "Ġhorror": 3338,
      "Ġawake": 3339,
      "Ġgrowing": 3340,
      "rilliant": 3341,
      "Ġdiscuss": 3342,
      "ĠJustin": 3343,
      "Ġechoed": 3344,
      "Ġpowers": 3345,
      "Madam": 3346,
      "Everyone": 3347,
      "Ġproperly": 3348,
      "ilderoy": 3349,
      "even": 3350,
      "mer": 3351,
      "men": 3352,
      "night": 3353,
      "oh": 3354,
      "sure": 3355,
      "tic": 3356,
      "ues": 3357,
      "zz": 3358,
      "Ġsomet": 3359,
      "Ġsister": 3360,
      "Ġwings": 3361,
      "arr": 3362,
      "Ġbin": 3363,
      "Ġfit": 3364,
      "Ġdressed": 3365,
      "Ġthousand": 3366,
      "Ġgro": 3367,
      "Ġstri": 3368,
      "vering": 3369,
      "ĠMar": 3370,
      "ĠMum": 3371,
      "tered": 3372,
      "Ġforce": 3373,
      "Ġrow": 3374,
      "ĠCornelius": 3375,
      "ĠApp": 3376,
      "ĠAfter": 3377,
      "ession": 3378,
      "Ġsocks": 3379,
      "umbling": 3380,
      "igantic": 3381,
      "ĠLucius": 3382,
      "eping": 3383,
      "Ġdownstairs": 3384,
      "Ġages": 3385,
      "Ġsuit": 3386,
      "thought": 3387,
      "Ġplate": 3388,
      "osing": 3389,
      "Ġhappening": 3390,
      "bert": 3391,
      "ordan": 3392,
      "Ġcleared": 3393,
      "ĠYes": 3394,
      "Ġfourth": 3395,
      "Ġexcitement": 3396,
      "Ġdrop": 3397,
      "looked": 3398,
      "racted": 3399,
      "Ġmissed": 3400,
      "Ġmissing": 3401,
      "Any": 3402,
      "Ġloads": 3403,
      "ĠEveryone": 3404,
      "ĠCharms": 3405,
      "Ġpanic": 3406,
      "Ġmiser": 3407,
      "Ġmidair": 3408,
      "Ġwhistle": 3409,
      "Ġcarriage": 3410,
      "Because": 3411,
      "Cedric": 3412,
      "Sorry": 3413,
      "With": 3414,
      "Yeh": 3415,
      "eed": 3416,
      "fer": 3417,
      "father": 3418,
      "iry": 3419,
      "my": 3420,
      "pan": 3421,
      "post": 3422,
      "vin": 3423,
      "will": 3424,
      "Ġtired": 3425,
      "Ġwoke": 3426,
      "ĠHorn": 3427,
      "Ġdancing": 3428,
      "Ġoften": 3429,
      "Ġpound": 3430,
      "Ġincl": 3431,
      "Ġinvisible": 3432,
      "Ġnor": 3433,
      "cked": 3434,
      "Ġstorm": 3435,
      "cept": 3436,
      "ague": 3437,
      "ayed": 3438,
      "ĠDel": 3439,
      "Ġrising": 3440,
      "une": 3441,
      "ello": 3442,
      "ils": 3443,
      "Ġabrup": 3444,
      "ouses": 3445,
      "Ġnois": 3446,
      "Ġalarm": 3447,
      "Ġsped": 3448,
      "Ġsparks": 3449,
      "Ġchild": 3450,
      "angling": 3451,
      "Ġflames": 3452,
      "estly": 3453,
      "Ġslammed": 3454,
      "Ġthinks": 3455,
      "Ġsmooth": 3456,
      "Ġglittering": 3457,
      "Ġseems": 3458,
      "aws": 3459,
      "Ġapparently": 3460,
      "Ġsilvery": 3461,
      "Ġremained": 3462,
      "Ġpres": 3463,
      "ounced": 3464,
      "Ġsuppor": 3465,
      "Ġsurround": 3466,
      "Ġsurface": 3467,
      "Ġsideways": 3468,
      "iping": 3469,
      "black": 3470,
      "ĠFlint": 3471,
      "which": 3472,
      "cial": 3473,
      "Ġfalling": 3474,
      "Ġdeterm": 3475,
      "Ġscramb": 3476,
      "Ġescaped": 3477,
      "Ġveela": 3478,
      "Ġsolid": 3479,
      "ĠSeverus": 3480,
      "Ġlifted": 3481,
      "Ġfloating": 3482,
      "Ġboggart": 3483,
      "Ġhastily": 3484,
      "ĠOllivander": 3485,
      "Ġenvelope": 3486,
      "Hello": 3487,
      "Mugg": 3488,
      "RY": 3489,
      "Wood": 3490,
      "aut": 3491,
      "ived": 3492,
      "min": 3493,
      "ner": 3494,
      "oaning": 3495,
      "tling": 3496,
      "Ġaunt": 3497,
      "ines": 3498,
      "Ġsens": 3499,
      "arse": 3500,
      "rest": 3501,
      "Ġfault": 3502,
      "Ġtoile": 3503,
      "itting": 3504,
      "Ġdread": 3505,
      "Ġthunder": 3506,
      "Ġlawn": 3507,
      "ĠMost": 3508,
      "sec": 3509,
      "uration": 3510,
      "ĠWhere": 3511,
      "Ġwerewolf": 3512,
      "usual": 3513,
      "Ġgoal": 3514,
      "elves": 3515,
      "igan": 3516,
      "ĠPotion": 3517,
      "Ġbran": 3518,
      "Ġdived": 3519,
      "ount": 3520,
      "Ġwrote": 3521,
      "Ġamong": 3522,
      "ĠJames": 3523,
      "Ġmuttering": 3524,
      "Ġcoldly": 3525,
      "Ġboard": 3526,
      "Ġparty": 3527,
      "while": 3528,
      "Ġinterested": 3529,
      "Ġpersu": 3530,
      "Ġadmit": 3531,
      "Ġexplod": 3532,
      "ĠAny": 3533,
      "Ġguess": 3534,
      "ĠWho": 3535,
      "Ġexcellent": 3536,
      "ierce": 3537,
      "Ġbusy": 3538,
      "ĠAlley": 3539,
      "Ġdrawing": 3540,
      "ENT": 3541,
      "ĠAlbus": 3542,
      "Ġfrightened": 3543,
      "Ġcalmly": 3544,
      "irteen": 3545,
      "Ġpriv": 3546,
      "figuration": 3547,
      "Ġimpatiently": 3548,
      "Ġhigher": 3549,
      "Ġconversation": 3550,
      "Ġmerely": 3551,
      "Ġcreature": 3552,
      "Ġimmediately": 3553,
      "De": 3554,
      "Fudge": 3555,
      "aud": 3556,
      "do": 3557,
      "gly": 3558,
      "mm": 3559,
      "mist": 3560,
      "pes": 3561,
      "ule": 3562,
      "Ġsighed": 3563,
      "Ġhide": 3564,
      "ony": 3565,
      "isapp": 3566,
      "idly": 3567,
      "Ġpour": 3568,
      "Ġpressed": 3569,
      "Ġgigantic": 3570,
      "Ġstuck": 3571,
      "agged": 3572,
      "ĠSir": 3573,
      "ĠSpell": 3574,
      "ĠRem": 3575,
      "ĠPig": 3576,
      "ĠDivination": 3577,
      "Ġanim": 3578,
      "Ġupward": 3579,
      "ĠCome": 3580,
      "unks": 3581,
      "ilt": 3582,
      "ilisk": 3583,
      "icing": 3584,
      "acles": 3585,
      "Ġje": 3586,
      "Ġjudg": 3587,
      "anting": 3588,
      "Ġweight": 3589,
      "Ġclothes": 3590,
      "ĠLet": 3591,
      "ĠLondon": 3592,
      "istory": 3593,
      "Ġanywhere": 3594,
      "olded": 3595,
      "Ġconne": 3596,
      "reevey": 3597,
      "Ġbrain": 3598,
      "never": 3599,
      "ĠOr": 3600,
      "innigan": 3601,
      "Ġpeered": 3602,
      "olly": 3603,
      "Ġwrite": 3604,
      "Ġjoke": 3605,
      "Ġbrooms": 3606,
      "Ġbreathing": 3607,
      "Nothing": 3608,
      "Ġdistant": 3609,
      "Ġbusiness": 3610,
      "Ġsqueaked": 3611,
      "Ġsending": 3612,
      "Ġshadows": 3613,
      "Ġchecking": 3614,
      "Ġsplit": 3615,
      "Ġleading": 3616,
      "Ġtransform": 3617,
      "Ġsimply": 3618,
      "Ġannoy": 3619,
      "Ġsuggested": 3620,
      "Ġfavorite": 3621,
      "Ġhuman": 3622,
      "Ġgroup": 3623,
      "Ġabruptly": 3624,
      "AS": 3625,
      "George": 3626,
      "IT": 3627,
      "away": 3628,
      "aved": 3629,
      "ek": 3630,
      "happ": 3631,
      "ior": 3632,
      "iles": 3633,
      "rom": 3634,
      "uing": 3635,
      "wid": 3636,
      "Ġtunn": 3637,
      "Ġtied": 3638,
      "inger": 3639,
      "rem": 3640,
      "Ġfair": 3641,
      "isf": 3642,
      "ĠHat": 3643,
      "eng": 3644,
      "Ġmark": 3645,
      "Ġlose": 3646,
      "Ġpick": 3647,
      "Ġgre": 3648,
      "Ġgul": 3649,
      "Ġgigg": 3650,
      "oward": 3651,
      "oween": 3652,
      "Ġbeet": 3653,
      "ĠRo": 3654,
      "ĠPeople": 3655,
      "roud": 3656,
      "allowed": 3657,
      "icent": 3658,
      "Ġlips": 3659,
      "acour": 3660,
      "Ġsoared": 3661,
      "Ġwhatever": 3662,
      "Ġagreed": 3663,
      "Ġchairs": 3664,
      "ogy": 3665,
      "Ġtele": 3666,
      "Ġkeen": 3667,
      "Ġbedroom": 3668,
      "uttering": 3669,
      "Ġproblem": 3670,
      "ission": 3671,
      "Ġemb": 3672,
      "Ġpassing": 3673,
      "Ġcontrol": 3674,
      "Ġeyeb": 3675,
      "Ġanger": 3676,
      "white": 3677,
      "ĠThousand": 3678,
      "Ġpaused": 3679,
      "Ġdisappo": 3680,
      "eyed": 3681,
      "Ġserious": 3682,
      "Ġlowered": 3683,
      "Ġcompartment": 3684,
      "ĠHowever": 3685,
      "Ġaccident": 3686,
      "Ġrefle": 3687,
      "Ġpretty": 3688,
      "Ġhoped": 3689,
      "Ġtower": 3690,
      "ossible": 3691,
      "Ġfamiliar": 3692,
      "Ġrelief": 3693,
      "Ġfirmly": 3694,
      "Ġhesitated": 3695,
      "Hogwarts": 3696,
      "ĠHorntail": 3697,
      "ĠDelacour": 3698,
      "ED": 3699,
      "Fl": 3700,
      "Got": 3701,
      "Ginny": 3702,
      "IR": 3703,
      "che": 3704,
      "ipe": 3705,
      "ky": 3706,
      "would": 3707,
      "Ġtur": 3708,
      "Ġtone": 3709,
      "Ġtick": 3710,
      "Ġtreat": 3711,
      "Ġast": 3712,
      "Ġwet": 3713,
      "Ġwave": 3714,
      "eding": 3715,
      "Ġbab": 3716,
      "Ġfierce": 3717,
      "Ġoh": 3718,
      "Ġcour": 3719,
      "Ġsave": 3720,
      "ĠHarrys": 3721,
      "Ġbelong": 3722,
      "Ġeating": 3723,
      "Ġuna": 3724,
      "Ġugly": 3725,
      "rick": 3726,
      "keep": 3727,
      "top": 3728,
      "ĠCreevey": 3729,
      "Ġleaning": 3730,
      "elling": 3731,
      "ĠFin": 3732,
      "Ġlived": 3733,
      "Ġbutter": 3734,
      "Ġjus": 3735,
      "Ġwhee": 3736,
      "iful": 3737,
      "Ġexper": 3738,
      "Ġvi": 3739,
      "ulars": 3740,
      "Ġgets": 3741,
      "Ġslight": 3742,
      "Ġtwisted": 3743,
      "Ġwanting": 3744,
      "Ġthank": 3745,
      "Ġglaring": 3746,
      "Ġeverywhere": 3747,
      "ĠOw": 3748,
      "Ġgrin": 3749,
      "ollow": 3750,
      "ordinary": 3751,
      "Ġnearest": 3752,
      "Ġclasses": 3753,
      "Ġlouder": 3754,
      "Ġfireplace": 3755,
      "liver": 3756,
      "oculars": 3757,
      "pected": 3758,
      "Ġbelieved": 3759,
      "Ġuseful": 3760,
      "Ġexplained": 3761,
      "Ġsweat": 3762,
      "Ġcompet": 3763,
      "Ġmonster": 3764,
      "Ġfallen": 3765,
      "Ġdouble": 3766,
      "Ġwildly": 3767,
      "Ġburning": 3768,
      "Ġfresh": 3769,
      "Ġeffect": 3770,
      "Ġmurder": 3771,
      "ĠGoblet": 3772,
      "Ġinnocent": 3773,
      "Ġstatue": 3774,
      "Ġdisgust": 3775,
      "haired": 3776,
      "Ġdelighted": 3777,
      "ĠGalleons": 3778,
      "Al": 3779,
      "GH": 3780,
      "Have": 3781,
      "Keep": 3782,
      "Must": 3783,
      "Or": 3784,
      "foot": 3785,
      "green": 3786,
      "no": 3787,
      "pted": 3788,
      "pose": 3789,
      "sl": 3790,
      "wor": 3791,
      "water": 3792,
      "Ġtest": 3793,
      "Ġward": 3794,
      "ares": 3795,
      "isting": 3796,
      "ĠHistory": 3797,
      "Ġchat": 3798,
      "Ġthreat": 3799,
      "Ġlad": 3800,
      "Ġlarg": 3801,
      "Ġpay": 3802,
      "Ġpile": 3803,
      "Ġpanted": 3804,
      "Ġner": 3805,
      "Ġbeh": 3806,
      "Ġbeak": 3807,
      "otting": 3808,
      "omas": 3809,
      "Ġstare": 3810,
      "chair": 3811,
      "pper": 3812,
      "umin": 3813,
      "Ġupset": 3814,
      "Ġrum": 3815,
      "Ġkiss": 3816,
      "ĠCan": 3817,
      "unted": 3818,
      "Ġgoes": 3819,
      "ĠTH": 3820,
      "ĠTo": 3821,
      "oping": 3822,
      "angled": 3823,
      "Ġflung": 3824,
      "Ġuncle": 3825,
      "Ġconjured": 3826,
      "uddy": 3827,
      "ĠChas": 3828,
      "ugging": 3829,
      "Ġnearby": 3830,
      "ĠJordan": 3831,
      "Ġfinal": 3832,
      "Ġbadly": 3833,
      "Ġcareful": 3834,
      "ĠThree": 3835,
      "Thanks": 3836,
      "himself": 3837,
      "Ġeggs": 3838,
      "Ġballs": 3839,
      "idnight": 3840,
      "Ġmistake": 3841,
      "Ġbarrier": 3842,
      "Ġwarning": 3843,
      "Ġplates": 3844,
      "Ġconcern": 3845,
      "Ġactually": 3846,
      "Ġlearned": 3847,
      "Ġroots": 3848,
      "Ġcuriously": 3849,
      "Ġeleven": 3850,
      "Ġfaint": 3851,
      "ĠErnie": 3852,
      "Ġperfectly": 3853,
      "merta": 3854,
      "Ġsupporters": 3855,
      "Ġeyebrows": 3856,
      "Dear": 3857,
      "ID": 3858,
      "Riddle": 3859,
      "don": 3860,
      "gy": 3861,
      "hin": 3862,
      "iagon": 3863,
      "mn": 3864,
      "ning": 3865,
      "ob": 3866,
      "oen": 3867,
      "Ġic": 3868,
      "Ġsong": 3869,
      "ats": 3870,
      "ature": 3871,
      "Ġmum": 3872,
      "Ġmood": 3873,
      "Ġmurm": 3874,
      "Ġmaze": 3875,
      "Ġlower": 3876,
      "Ġpress": 3877,
      "Ġinch": 3878,
      "Ġsaved": 3879,
      "Ġstunned": 3880,
      "stal": 3881,
      "see": 3882,
      "ĠSome": 3883,
      "ooked": 3884,
      "ĠRos": 3885,
      "Ġsevent": 3886,
      "Ġshocked": 3887,
      "ĠWillow": 3888,
      "ĠCare": 3889,
      "ĠAND": 3890,
      "Ġdozen": 3891,
      "ĠBo": 3892,
      "ĠFinnigan": 3893,
      "ĠTheir": 3894,
      "Ġknock": 3895,
      "Ġweird": 3896,
      "Ġclapped": 3897,
      "Ġabs": 3898,
      "rapped": 3899,
      "Ġchuck": 3900,
      "ieve": 3901,
      "thy": 3902,
      "Ġslip": 3903,
      "inns": 3904,
      "Ġclean": 3905,
      "Ġclearing": 3906,
      "Ġsurely": 3907,
      "Ġhelping": 3908,
      "Ġfellow": 3909,
      "ronus": 3910,
      "Ġinteresting": 3911,
      "Ġhighly": 3912,
      "Ġripped": 3913,
      "Ġstuffed": 3914,
      "Ġobject": 3915,
      "Ġbags": 3916,
      "Ġquestions": 3917,
      "ĠNorbert": 3918,
      "anned": 3919,
      "Ġcircle": 3920,
      "Ġcrept": 3921,
      "Ġeffort": 3922,
      "ĉĉĉ": 3923,
      "aturday": 3924,
      "Ġdesperately": 3925,
      "Ġmagn": 3926,
      "Ġcopy": 3927,
      "ĠTransfiguration": 3928,
      "Ġpumpkin": 3929,
      "Ġtoilet": 3930,
      "Ġjudges": 3931,
      "oenix": 3932,
      "',": 3933,
      "CH": 3934,
      "CK": 3935,
      "Something": 3936,
      "To": 3937,
      "bout": 3938,
      "tr": 3939,
      "Ġ*": 3940,
      "Ġtongue": 3941,
      "hee": 3942,
      "Ġbul": 3943,
      "Ġfang": 3944,
      "Ġtoad": 3945,
      "asy": 3946,
      "org": 3947,
      "lebr": 3948,
      "Ġdry": 3949,
      "Ġdangling": 3950,
      "Ġhed": 3951,
      "Ġthirteen": 3952,
      "Ġlove": 3953,
      "Ġpen": 3954,
      "Ġpet": 3955,
      "ading": 3956,
      "Ġgap": 3957,
      "Ġgather": 3958,
      "ims": 3959,
      "Ġstrid": 3960,
      "uture": 3961,
      "amel": 3962,
      "Ġreve": 3963,
      "ĠDon": 3964,
      "ĠDep": 3965,
      "Ġshudd": 3966,
      "ĠCom": 3967,
      "ĠCauldron": 3968,
      "ĠBoth": 3969,
      "Ġlie": 3970,
      "Ġlip": 3971,
      "ĠGilderoy": 3972,
      "Ġwear": 3973,
      "ourney": 3974,
      "Ġnodding": 3975,
      "Ġpop": 3976,
      "Ġflood": 3977,
      "Ġflash": 3978,
      "Ġblur": 3979,
      "thin": 3980,
      "Ġscene": 3981,
      "Ġsmir": 3982,
      "Ġsmoke": 3983,
      "Ġdoorway": 3984,
      "beer": 3985,
      "ĠEater": 3986,
      "itching": 3987,
      "Ġappre": 3988,
      "Ġolder": 3989,
      "Ġopening": 3990,
      "Ġkeeps": 3991,
      "Ġsatisf": 3992,
      "ĠJork": 3993,
      "Ġcrowded": 3994,
      "Ġrealize": 3995,
      "Ġ(\"": 3996,
      "Ġplayed": 3997,
      "Ġstayed": 3998,
      "ĠAngelina": 3999,
      "Ġmeeting": 4000,
      "Ġtouched": 4001,
      "Ġevid": 4002,
      "Ġbasin": 4003,
      "Ġanxiously": 4004,
      "Ġgrip": 4005,
      "Ġmonths": 4006,
      "Ġbrave": 4007,
      "Ġskrewts": 4008,
      "ĠBulgarian": 4009,
      "Ġservant": 4010,
      "Ġwritten": 4011,
      "orcer": 4012,
      "arrass": 4013,
      "Ġscrambled": 4014,
      "widgeon": 4015,
      "Ġtunnel": 4016,
      "After": 4017,
      "Filch": 4018,
      "Here": 4019,
      "IS": 4020,
      "Some": 4021,
      "Sever": 4022,
      "cious": 4023,
      "couldn": 4024,
      "kward": 4025,
      "Ġing": 4026,
      "Ġice": 4027,
      "Ġtap": 4028,
      "Ġtense": 4029,
      "Ġage": 4030,
      "Ġwife": 4031,
      "Ġhate": 4032,
      "Ġhorn": 4033,
      "Ġbarked": 4034,
      "Ġcrying": 4035,
      "ids": 4036,
      "ench": 4037,
      "Ġdance": 4038,
      "Ġdashed": 4039,
      "Ġmarks": 4040,
      "Ġlamp": 4041,
      "Ġpure": 4042,
      "Ġpicking": 4043,
      "Ġproud": 4044,
      "ott": 4045,
      "omping": 4046,
      "Ġstars": 4047,
      "Ġstiff": 4048,
      "ettle": 4049,
      "ĠMoaning": 4050,
      "cellent": 4051,
      "amped": 4052,
      "terday": 4053,
      "ĠPo": 4054,
      "Ġshrill": 4055,
      "ainly": 4056,
      "ĠBinns": 4057,
      "Ġnotes": 4058,
      "Ġjourney": 4059,
      "Ġclue": 4060,
      "ift": 4061,
      "ĠLook": 4062,
      "Ġpoison": 4063,
      "Ġlikely": 4064,
      "Ġsuff": 4065,
      "Ġscree": 4066,
      "Ġencl": 4067,
      "Ġmod": 4068,
      "Ġmoaned": 4069,
      "should": 4070,
      "Ġmustache": 4071,
      "Ġcrash": 4072,
      "Ġhoarse": 4073,
      "Ġcurtains": 4074,
      "Ġmarched": 4075,
      "Ġpockets": 4076,
      "Ġsleeping": 4077,
      "Ġreport": 4078,
      "ugs": 4079,
      "Ġstrangely": 4080,
      "Ġeasily": 4081,
      "Ġescape": 4082,
      "Ġignored": 4083,
      "Ġanxious": 4084,
      "Ġavoid": 4085,
      "ĠPatronus": 4086,
      "Ġjerked": 4087,
      "Ġposition": 4088,
      "poster": 4089,
      "Ġdetermined": 4090,
      "ĠJorkins": 4091,
      "\"-": 4092,
      "AA": 4093,
      "Crookshanks": 4094,
      "ES": 4095,
      "ET": 4096,
      "EEN": 4097,
      "FF": 4098,
      "Le": 4099,
      "OW": 4100,
      "after": 4101,
      "ban": 4102,
      "born": 4103,
      "came": 4104,
      "gs": 4105,
      "hus": 4106,
      "iped": 4107,
      "jam": 4108,
      "line": 4109,
      "port": 4110,
      "rong": 4111,
      "some": 4112,
      "vious": 4113,
      "Ġ2": 4114,
      "Ġess": 4115,
      "Ġwid": 4116,
      "Ġhut": 4117,
      "Ġbowed": 4118,
      "asks": 4119,
      "orough": 4120,
      "Ġdem": 4121,
      "Ġdull": 4122,
      "Ġdamp": 4123,
      "Ġmine": 4124,
      "Ġlap": 4125,
      "Ġpudd": 4126,
      "Ġgen": 4127,
      "Ġinv": 4128,
      "Ġbeaut": 4129,
      "Ġstool": 4130,
      "stead": 4131,
      "ĠIrel": 4132,
      "aging": 4133,
      "ĠSaturday": 4134,
      "Ġrepl": 4135,
      "ĠBy": 4136,
      "icious": 4137,
      "ĠFe": 4138,
      "ĠFawkes": 4139,
      "Ġbacked": 4140,
      "Ġweather": 4141,
      "Ġclub": 4142,
      "ths": 4143,
      "Ġhandle": 4144,
      "Ġwhipped": 4145,
      "Ġcannot": 4146,
      "ounded": 4147,
      "ĠOliver": 4148,
      "before": 4149,
      "Ġartic": 4150,
      "Ġeng": 4151,
      "Ġswallowed": 4152,
      "berts": 4153,
      "Ġsilently": 4154,
      "ended": 4155,
      "Ġdrown": 4156,
      "Ġneeds": 4157,
      "Ġskull": 4158,
      "Ġpassword": 4159,
      "Ġsounds": 4160,
      "attering": 4161,
      "Ġbadge": 4162,
      "ĠFlamel": 4163,
      "ĠThomas": 4164,
      "Ġinterest": 4165,
      "Ġstraightened": 4166,
      "Thank": 4167,
      "Ġstaying": 4168,
      "Ġdisappear": 4169,
      "Ġvisible": 4170,
      "bology": 4171,
      "--\"": 4172,
      "Ġcelebr": 4173,
      "Ġspells": 4174,
      "Ġlanding": 4175,
      "oneydu": 4176,
      "Ġclutched": 4177,
      "Ġsafely": 4178,
      "Ġechoing": 4179,
      "Ġbasilisk": 4180,
      "Ġsimple": 4181,
      "Ġpretending": 4182,
      "Ġindign": 4183,
      "Ġspiral": 4184,
      "Ġrecognized": 4185,
      "roomsticks": 4186,
      "Ġpermission": 4187,
      "ĠAppar": 4188,
      "Ġprivate": 4189,
      "ĠRoberts": 4190,
      "ĠRosmerta": 4191,
      "ĠDepartment": 4192,
      "ĠIreland": 4193,
      "Ġarticle": 4194,
      "Dursley": 4195,
      "Scabbers": 4196,
      "con": 4197,
      "col": 4198,
      "give": 4199,
      "house": 4200,
      "rish": 4201,
      "school": 4202,
      "tw": 4203,
      "tee": 4204,
      "wand": 4205,
      "your": 4206,
      "ylow": 4207,
      "Ġought": 4208,
      "Ġwiping": 4209,
      "Ġhic": 4210,
      "Ġbones": 4211,
      "Ġbrilliant": 4212,
      "Ġfan": 4213,
      "Ġfil": 4214,
      "Ġfully": 4215,
      "att": 4216,
      "ittle": 4217,
      "Ġcurs": 4218,
      "Ġdying": 4219,
      "Ġdrif": 4220,
      "Ġmotion": 4221,
      "Ġthud": 4222,
      "Ġlump": 4223,
      "Ġlosing": 4224,
      "Ġgn": 4225,
      "Ġgently": 4226,
      "another": 4227,
      "oos": 4228,
      "imit": 4229,
      "still": 4230,
      "Ġut": 4231,
      "ceed": 4232,
      "roy": 4233,
      "Ġrece": 4234,
      "ĠPerhaps": 4235,
      "acked": 4236,
      "Ġshape": 4237,
      "ĠCon": 4238,
      "indylow": 4239,
      "arting": 4240,
      "aker": 4241,
      "icia": 4242,
      "geons": 4243,
      "Ġwel": 4244,
      "ĠTW": 4245,
      "raft": 4246,
      "Ġoverhead": 4247,
      "Ġtherefore": 4248,
      "Ġanybody": 4249,
      "Ġcharm": 4250,
      "Ġblinked": 4251,
      "than": 4252,
      "think": 4253,
      "Ġscow": 4254,
      "Ġroar": 4255,
      "behind": 4256,
      "Ġgrown": 4257,
      "ĠPotters": 4258,
      "Ġways": 4259,
      "ĠKeep": 4260,
      "Ġpeering": 4261,
      "Quirrell": 4262,
      "Ġchess": 4263,
      "Ġbitterly": 4264,
      "Ġfinding": 4265,
      "Ġclever": 4266,
      "Ġsettled": 4267,
      "Ġsounding": 4268,
      "Ġlights": 4269,
      "Ġimpossible": 4270,
      "Ġfinish": 4271,
      "Ġinterrup": 4272,
      "Three": 4273,
      "Ġadm": 4274,
      "immering": 4275,
      "Ġdistance": 4276,
      "Ġaware": 4277,
      "Ġawkward": 4278,
      "Ġbush": 4279,
      "Ġaccom": 4280,
      "Ġmadly": 4281,
      "Excellent": 4282,
      "ĠBludgers": 4283,
      "Only": 4284,
      "mittee": 4285,
      "ĠHerbology": 4286,
      "Ġconsider": 4287,
      "Ġbrothers": 4288,
      "Ġpunish": 4289,
      "Ġfaith": 4290,
      "Ġsleeve": 4291,
      "Ġcrystal": 4292,
      "Ġurg": 4293,
      "ĠLeaky": 4294,
      "Ġreminded": 4295,
      "Ġprepared": 4296,
      "Ġunpleasant": 4297,
      "Ġbranches": 4298,
      "Ġembarrass": 4299,
      "keeper": 4300,
      "Ġbutterbeer": 4301,
      "ĠOwl": 4302,
      "Ġstriding": 4303,
      "husi": 4304,
      "oneydukes": 4305,
      "Course": 4306,
      "Fire": 4307,
      "Like": 4308,
      "Me": 4309,
      "Min": 4310,
      "Peeves": 4311,
      "Please": 4312,
      "ait": 4313,
      "bly": 4314,
      "bet": 4315,
      "cr": 4316,
      "cise": 4317,
      "fall": 4318,
      "first": 4319,
      "great": 4320,
      "large": 4321,
      "ract": 4322,
      "toward": 4323,
      "Ġsink": 4324,
      "arters": 4325,
      "Ġbust": 4326,
      "Ġboom": 4327,
      "Ġbank": 4328,
      "Ġbald": 4329,
      "Ġfury": 4330,
      "Ġfaded": 4331,
      "Ġcas": 4332,
      "Ġcamps": 4333,
      "Ġdam": 4334,
      "Ġmidnight": 4335,
      "Ġpred": 4336,
      "Ġpillow": 4337,
      "oop": 4338,
      "ooting": 4339,
      "Ġyard": 4340,
      "Ġyawn": 4341,
      "ĠId": 4342,
      "ĠIrish": 4343,
      "irling": 4344,
      "ĠPad": 4345,
      "ĠDiagon": 4346,
      "umed": 4347,
      "ummon": 4348,
      "Ġdod": 4349,
      "ĠBoy": 4350,
      "astic": 4351,
      "Ġlives": 4352,
      "acle": 4353,
      "antically": 4354,
      "ĠTO": 4355,
      "Ġnostri": 4356,
      "Ġoffered": 4357,
      "Ġspat": 4358,
      "Ġunf": 4359,
      "Ġunw": 4360,
      "onder": 4361,
      "Ġglancing": 4362,
      "Ġorange": 4363,
      "ĠOU": 4364,
      "Ġench": 4365,
      "Ġgrand": 4366,
      "Ġthoughts": 4367,
      "Ġbecoming": 4368,
      "ship": 4369,
      "action": 4370,
      "Ġremoved": 4371,
      "Ġenter": 4372,
      "Ġarmor": 4373,
      "Ġterror": 4374,
      "Ġsniff": 4375,
      "umph": 4376,
      "Ġsquee": 4377,
      "turned": 4378,
      "Ġbreathed": 4379,
      "Ġlistened": 4380,
      "Ġbubble": 4381,
      "ĠHalloween": 4382,
      "Ġpaid": 4383,
      "Ġpajam": 4384,
      "Ġinstru": 4385,
      "imming": 4386,
      "Ġdistin": 4387,
      "omfort": 4388,
      "Ġbreathlessly": 4389,
      "Ġpossibly": 4390,
      "Ġnoticing": 4391,
      "Ġtraining": 4392,
      "rief": 4393,
      "Ġsquealed": 4394,
      "Ġcounter": 4395,
      "Ġphoenix": 4396,
      "Ġincred": 4397,
      "Ġfurther": 4398,
      "Ġmentioned": 4399,
      "Ġfailed": 4400,
      "books": 4401,
      "fortun": 4402,
      "Ġphotograph": 4403,
      "Ġentirely": 4404,
      "ĠMaraud": 4405,
      "Ġpounding": 4406,
      "ĠPigwidgeon": 4407,
      "Ġunable": 4408,
      "Ġviol": 4409,
      "mni": 4410,
      "orcerer": 4411,
      "Ġcampsite": 4412,
      "Crouch": 4413,
      "IM": 4414,
      "Someone": 4415,
      "bers": 4416,
      "ech": 4417,
      "four": 4418,
      "ha": 4419,
      "mother": 4420,
      "ton": 4421,
      "went": 4422,
      "Ġtents": 4423,
      "Ġsy": 4424,
      "Ġsway": 4425,
      "Ġsides": 4426,
      "Ġwished": 4427,
      "Ġwren": 4428,
      "Ġbuck": 4429,
      "Ġfought": 4430,
      "Ġtoast": 4431,
      "asion": 4432,
      "orre": 4433,
      "Ġmud": 4434,
      "Ġthorough": 4435,
      "Ġleng": 4436,
      "Ġpause": 4437,
      "Ġpages": 4438,
      "Ġinvol": 4439,
      "Ġsaf": 4440,
      "Ġstate": 4441,
      "Ġstream": 4442,
      "Ġstret": 4443,
      "stone": 4444,
      "sters": 4445,
      "uts": 4446,
      "ĠMac": 4447,
      "alking": 4448,
      "alty": 4449,
      "ĠPort": 4450,
      "ĠPans": 4451,
      "Ġfort": 4452,
      "hers": 4453,
      "Ġrise": 4454,
      "Ġrisk": 4455,
      "ĠCross": 4456,
      "Ġlevel": 4457,
      "ĠAmos": 4458,
      "Ġneat": 4459,
      "ĠFather": 4460,
      "udblood": 4461,
      "Ġknocking": 4462,
      "Ġjet": 4463,
      "elting": 4464,
      "Ġchick": 4465,
      "ĠNext": 4466,
      "apes": 4467,
      "Ġdefe": 4468,
      "Ġplenty": 4469,
      "redi": 4470,
      "Ġrope": 4471,
      "Ġglimp": 4472,
      "Ġglance": 4473,
      "Ġeverybody": 4474,
      "Ġtrunks": 4475,
      "neath": 4476,
      "ĠOmni": 4477,
      "Ġmanage": 4478,
      "Ġgrindylow": 4479,
      "Quidditch": 4480,
      "Ġdisbel": 4481,
      "Ġmoments": 4482,
      "Ġends": 4483,
      "Ġended": 4484,
      "class": 4485,
      "Ġbedside": 4486,
      "ouncing": 4487,
      "Ġsupport": 4488,
      "Ġwrist": 4489,
      "Ġsnigg": 4490,
      "Ġsurv": 4491,
      "Ġlightning": 4492,
      "ildered": 4493,
      "Ġsorts": 4494,
      "Ġsteal": 4495,
      "ĠFluffy": 4496,
      "Ġexcuse": 4497,
      "Ġcloaks": 4498,
      "vision": 4499,
      "Ġsigned": 4500,
      "ĠWhomping": 4501,
      "Ġpossession": 4502,
      "Ġyesterday": 4503,
      "Ġstreng": 4504,
      "Ġfifth": 4505,
      "Ġkindly": 4506,
      "anything": 4507,
      "front": 4508,
      "floor": 4509,
      "Ġdifficulty": 4510,
      "ĠErrol": 4511,
      "Ġdungeons": 4512,
      "Ġstronger": 4513,
      "Ġobvious": 4514,
      "Ġrubbing": 4515,
      "Ġrubbish": 4516,
      "Ġmurd": 4517,
      "OTTER": 4518,
      "Ġimagine": 4519,
      "Ġbowl": 4520,
      "Ġcheerful": 4521,
      "Really": 4522,
      "Ġcandles": 4523,
      "Ġgoblin": 4524,
      "Ġgoblins": 4525,
      "Ġcountry": 4526,
      "Pettigrew": 4527,
      "ascin": 4528,
      "zzled": 4529,
      "Ġsometimes": 4530,
      "Ġpresents": 4531,
      "Ġbeetle": 4532,
      "Ġhedge": 4533,
      "Ġfaithful": 4534,
      "Ġnostrils": 4535,
      "ĠPansy": 4536,
      "Miss": 4537,
      "UM": 4538,
      "aa": 4539,
      "bre": 4540,
      "can": 4541,
      "dement": 4542,
      "good": 4543,
      "nis": 4544,
      "teen": 4545,
      "uct": 4546,
      "wouldn": 4547,
      "Ġtro": 4548,
      "inion": 4549,
      "Ġsixt": 4550,
      "Ġwishing": 4551,
      "oned": 4552,
      "Ġfoul": 4553,
      "Ġfolded": 4554,
      "atie": 4555,
      "asing": 4556,
      "left": 4557,
      "Ġloose": 4558,
      "Ġpub": 4559,
      "Ġpushing": 4560,
      "Ġginger": 4561,
      "owering": 4562,
      "imy": 4563,
      "Ġsticking": 4564,
      "stud": 4565,
      "ĠIs": 4566,
      "ĠMap": 4567,
      "Ġash": 4568,
      "urity": 4569,
      "orest": 4570,
      "ĠDo": 4571,
      "Ġsepar": 4572,
      "acket": 4573,
      "ume": 4574,
      "Ġshake": 4575,
      "Ġrust": 4576,
      "Ġrage": 4577,
      "ĠWitch": 4578,
      "Ġfrantically": 4579,
      "Ġneither": 4580,
      "elp": 4581,
      "Ġval": 4582,
      "Ġfee": 4583,
      "Ġspun": 4584,
      "Ġflashed": 4585,
      "Ġblame": 4586,
      "Ġheading": 4587,
      "Ġtwink": 4588,
      "onday": 4589,
      "gged": 4590,
      "Ġsword": 4591,
      "ĠKing": 4592,
      "Ġthoughtfully": 4593,
      "Ġunderstood": 4594,
      "Ġsilk": 4595,
      "Ġcheering": 4596,
      "Ġdarkly": 4597,
      "orses": 4598,
      "Ġcontact": 4599,
      "avior": 4600,
      "Ġquivering": 4601,
      "Ġsquinting": 4602,
      "Ġnewsp": 4603,
      "unged": 4604,
      "Ġdragged": 4605,
      "Ġdragging": 4606,
      "ronum": 4607,
      "Ġmovement": 4608,
      "Ġdistracted": 4609,
      "Ġdecor": 4610,
      "Ġsweater": 4611,
      "lowly": 4612,
      "phone": 4613,
      "struck": 4614,
      "Ġtriumph": 4615,
      "Ġtrap": 4616,
      "Ġoddly": 4617,
      "ĠNobody": 4618,
      "ĠOnce": 4619,
      "Ġcollect": 4620,
      "Ġwarned": 4621,
      "Ġevil": 4622,
      "Ġgamekeeper": 4623,
      "Ġsearch": 4624,
      "Ġchoice": 4625,
      "Ġchoked": 4626,
      "Ġclouds": 4627,
      "Ġpassageway": 4628,
      "Ġrolling": 4629,
      "Ġenjoying": 4630,
      "Ġfamilies": 4631,
      "ĠExpress": 4632,
      "Ġcenter": 4633,
      "Ġmassive": 4634,
      "Ġsobbing": 4635,
      "Ġfeathers": 4636,
      "Ġsurrounded": 4637,
      "Muggle": 4638,
      "Ġexploded": 4639,
      "Ġbaby": 4640,
      "Ġbeautiful": 4641,
      "Ġpajamas": 4642,
      "Ġinstructions": 4643,
      "haust": 4644,
      "ĠPortkey": 4645,
      "redients": 4646,
      "ĠOmnioculars": 4647,
      "By": 4648,
      "Bet": 4649,
      "Crabbe": 4650,
      "LD": 4651,
      "Master": 4652,
      "OM": 4653,
      "Out": 4654,
      "bit": 4655,
      "dr": 4656,
      "gan": 4657,
      "iest": 4658,
      "juice": 4659,
      "ns": 4660,
      "nch": 4661,
      "ov": 4662,
      "pass": 4663,
      "spect": 4664,
      "tin": 4665,
      "uit": 4666,
      "uel": 4667,
      "view": 4668,
      "Ġrough": 4669,
      "Ġtank": 4670,
      "Ġwiped": 4671,
      "Ġhost": 4672,
      "arter": 4673,
      "Ġfoc": 4674,
      "Ġoak": 4675,
      "ĠHad": 4676,
      "ĠHoneydukes": 4677,
      "Ġcream": 4678,
      "Ġdawn": 4679,
      "Ġmil": 4680,
      "Ġmail": 4681,
      "Ġlaw": 4682,
      "Ġlately": 4683,
      "Ġlines": 4684,
      "Ġpairs": 4685,
      "Ġpanting": 4686,
      "lyjuice": 4687,
      "Ġbeckon": 4688,
      "ots": 4689,
      "stretched": 4690,
      "irled": 4691,
      "chief": 4692,
      "seem": 4693,
      "entle": 4694,
      "robe": 4695,
      "kend": 4696,
      "ĠRe": 4697,
      "Ġrequ": 4698,
      "acks": 4699,
      "Ġshown": 4700,
      "pecto": 4701,
      "anded": 4702,
      "unity": 4703,
      "ĠBook": 4704,
      "iced": 4705,
      "Ġallow": 4706,
      "udged": 4707,
      "elcome": 4708,
      "Ġclock": 4709,
      "ificent": 4710,
      "ĠLily": 4711,
      "Ġnos": 4712,
      "nair": 4713,
      "uper": 4714,
      "Ġspace": 4715,
      "Ġspoken": 4716,
      "Ġmyster": 4717,
      "Ġunusual": 4718,
      "Ġdef": 4719,
      "Ġconce": 4720,
      "Ġcomfort": 4721,
      "olt": 4722,
      "Ġopinion": 4723,
      "Ġafterward": 4724,
      "Ġspecial": 4725,
      "shot": 4726,
      "Ġenthusi": 4727,
      "Ġarmchair": 4728,
      "Ġbeds": 4729,
      "Ġcrump": 4730,
      "Ġgreatest": 4731,
      "getting": 4732,
      "azement": 4733,
      "Ġsnatched": 4734,
      "Ġburied": 4735,
      "rawled": 4736,
      "eyes": 4737,
      "Ġserp": 4738,
      "ĠHeadmaster": 4739,
      "Ġpackage": 4740,
      "Ġsooner": 4741,
      "Ġpieces": 4742,
      "ĠOnly": 4743,
      "Ġmembers": 4744,
      "Ġcabinet": 4745,
      "ĠAlicia": 4746,
      "Ġsprang": 4747,
      "Ġnormally": 4748,
      "Ġemerging": 4749,
      "Ġdiscovered": 4750,
      "Ġquills": 4751,
      "Ġerup": 4752,
      "ĠNothing": 4753,
      "Before": 4754,
      "Ġhungry": 4755,
      "Ġblankly": 4756,
      "ruci": 4757,
      "Ġsuggest": 4758,
      "Ġsearching": 4759,
      "Ġshadowy": 4760,
      "Ġprotect": 4761,
      "Ġwonderful": 4762,
      "Ġdesperate": 4763,
      "Ġweakly": 4764,
      "Ġstruggling": 4765,
      "Ġmerpeople": 4766,
      "addock": 4767,
      "Ġimpression": 4768,
      "Ġirritably": 4769,
      "Ġcroaked": 4770,
      "vinced": 4771,
      "second": 4772,
      "Ġaston": 4773,
      "Ġfiercely": 4774,
      "Ġbehavior": 4775,
      "Ġicy": 4776,
      "Ġfangs": 4777,
      "ĠCommittee": 4778,
      "Ġaccompan": 4779,
      "\"--": 4780,
      ".'": 4781,
      "Aunt": 4782,
      "EL": 4783,
      "First": 4784,
      "Gr": 4785,
      "Hedwig": 4786,
      "IGH": 4787,
      "Karkaroff": 4788,
      "Pl": 4789,
      "Par": 4790,
      "Tell": 4791,
      "Vernon": 4792,
      "co": 4793,
      "did": 4794,
      "dark": 4795,
      "ew": 4796,
      "ho": 4797,
      "hold": 4798,
      "lock": 4799,
      "ners": 4800,
      "nze": 4801,
      "supp": 4802,
      "two": 4803,
      "wind": 4804,
      "yeh": 4805,
      "Ġid": 4806,
      "Ġtill": 4807,
      "Ġaim": 4808,
      "inx": 4809,
      "ints": 4810,
      "Ġsour": 4811,
      "era": 4812,
      "ert": 4813,
      "Ġhated": 4814,
      "only": 4815,
      "ndeed": 4816,
      "Ġbigg": 4817,
      "Ġborrow": 4818,
      "Ġbrief": 4819,
      "res": 4820,
      "Ġfaster": 4821,
      "Ġcool": 4822,
      "Ġcakes": 4823,
      "lly": 4824,
      "Ġheaved": 4825,
      "Ġmakes": 4826,
      "Ġthirty": 4827,
      "Ġpuff": 4828,
      "Ġpier": 4829,
      "Ġbeamed": 4830,
      "Ġstern": 4831,
      "Ġstagg": 4832,
      "eted": 4833,
      "irs": 4834,
      "agog": 4835,
      "ribb": 4836,
      "ribly": 4837,
      "ĠST": 4838,
      "ĠPOTTER": 4839,
      "ĠDid": 4840,
      "ĠDisapp": 4841,
      "Ġant": 4842,
      "Ġforcing": 4843,
      "Ġsho": 4844,
      "Ġship": 4845,
      "Ġshapes": 4846,
      "Ġ--?\"": 4847,
      "ĠForest": 4848,
      "udging": 4849,
      "Ġclapping": 4850,
      "quarters": 4851,
      "Ġabou": 4852,
      "Ġexec": 4853,
      "Ġvague": 4854,
      "Ġchin": 4855,
      "Ġquarter": 4856,
      "ĠNever": 4857,
      "Head": 4858,
      "Ġsucc": 4859,
      "Ġflight": 4860,
      "Ġdev": 4861,
      "Ġcomm": 4862,
      "olas": 4863,
      "Ġglinting": 4864,
      "Ġbrisk": 4865,
      "Ġgrate": 4866,
      "Ġgrimly": 4867,
      "ĠKatie": 4868,
      "Ġspend": 4869,
      "Ġacting": 4870,
      "hens": 4871,
      "uddenly": 4872,
      "ails": 4873,
      "onscious": 4874,
      "Ġprevious": 4875,
      "Ġstruck": 4876,
      "ounce": 4877,
      "Ġhandsome": 4878,
      "Ġcontents": 4879,
      "Ġsetting": 4880,
      "Ġearn": 4881,
      "Ġparce": 4882,
      "Ġimpressed": 4883,
      "headed": 4884,
      "angerous": 4885,
      "Ġyelling": 4886,
      "Ġforever": 4887,
      "ĠYet": 4888,
      "Ġpleas": 4889,
      "abby": 4890,
      "Ġdropping": 4891,
      "Ġplayer": 4892,
      "Ġdistur": 4893,
      "HAT": 4894,
      "Ġsweets": 4895,
      "Ġsweeping": 4896,
      "cient": 4897,
      "Ġanswered": 4898,
      "Ġedged": 4899,
      "Ġrats": 4900,
      "Ġdifference": 4901,
      "Ġbursting": 4902,
      "Ġmisty": 4903,
      "Ġinsides": 4904,
      "Ġcatching": 4905,
      "Ġexamining": 4906,
      "Ġchecked": 4907,
      "Ġsneered": 4908,
      "Ġexpecting": 4909,
      "Ġuncomfort": 4910,
      "ĠParse": 4911,
      "Ġtorn": 4912,
      "Ġextraordinary": 4913,
      "Ġconfused": 4914,
      "Ġposts": 4915,
      "Ġavoiding": 4916,
      "Ġimagined": 4917,
      "Ġcircular": 4918,
      "everyone": 4919,
      "Ġblew": 4920,
      "Ġattempt": 4921,
      "Ġlurking": 4922,
      "Ġmessage": 4923,
      "ĠImper": 4924,
      "Ġmiserably": 4925,
      "Ġdisappointed": 4926,
      "Ġexperi": 4927,
      "Ġthreatening": 4928,
      "ĠChasers": 4929,
      "Ġbulging": 4930,
      "Ġingredients": 4931,
      "ceeded": 4932,
      "ĠMarauder": 4933,
      "Ġtrapdoor": 4934,
      "Parvati": 4935,
      "Ġbriskly": 4936,
      "Bagman": 4937,
      "Dunno": 4938,
      "ION": 4939,
      "ILL": 4940,
      "Magic": 4941,
      "Named": 4942,
      "RON": 4943,
      "Wormtail": 4944,
      "cent": 4945,
      "cup": 4946,
      "cul": 4947,
      "cope": 4948,
      "friend": 4949,
      "gave": 4950,
      "high": 4951,
      "lo": 4952,
      "last": 4953,
      "mind": 4954,
      "miss": 4955,
      "pull": 4956,
      "pol": 4957,
      "rat": 4958,
      "squ": 4959,
      "too": 4960,
      "table": 4961,
      "uly": 4962,
      "uce": 4963,
      "wol": 4964,
      "wise": 4965,
      "Ġ,": 4966,
      "Ġaut": 4967,
      "Ġsunk": 4968,
      "Ġsadly": 4969,
      "Ġwore": 4970,
      "Ġwrapped": 4971,
      "Ġhar": 4972,
      "Ġhorses": 4973,
      "Ġband": 4974,
      "Ġbull": 4975,
      "Ġbree": 4976,
      "Ġbite": 4977,
      "Ġbod": 4978,
      "Ġfi": 4979,
      "Ġtore": 4980,
      "ĠHigh": 4981,
      "Ġcart": 4982,
      "Ġcake": 4983,
      "Ġcush": 4984,
      "enched": 4985,
      "Ġdive": 4986,
      "Ġhex": 4987,
      "Ġlaz": 4988,
      "Ġgentle": 4989,
      "ooping": 4990,
      "oolly": 4991,
      "Ġbear": 4992,
      "Ġbearing": 4993,
      "Ġbending": 4994,
      "Ġstar": 4995,
      "Ġ\"'": 4996,
      "veled": 4997,
      "eting": 4998,
      "Ġund": 4999,
      "chaun": 5000,
      "ĠMonday": 5001,
      "Ġwhimp": 5002,
      "ries": 5003,
      "rog": 5004,
      "amera": 5005,
      "ĠSomeone": 5006,
      "ĠPl": 5007,
      "ĠPens": 5008,
      "rous": 5009,
      "Ġank": 5010,
      "Ġsea": 5011,
      "Ġrushed": 5012,
      "Ġkettle": 5013,
      "Ġoutstretched": 5014,
      "ĠAur": 5015,
      "ĠBrown": 5016,
      "empt": 5017,
      "astically": 5018,
      "acon": 5019,
      "Ġjar": 5020,
      "Ġjudge": 5021,
      "Ġclicked": 5022,
      "Ġsock": 5023,
      "tingu": 5024,
      "Ġpopping": 5025,
      "Ġspark": 5026,
      "arkins": 5027,
      "imey": 5028,
      "Ġflashing": 5029,
      "Ġblow": 5030,
      "Ġhandful": 5031,
      "Ġdeaf": 5032,
      "Ġplaces": 5033,
      "Ġsched": 5034,
      "ĠVery": 5035,
      "Ġsmo": 5036,
      "idding": 5037,
      "urely": 5038,
      "next": 5039,
      "ĠMalfoys": 5040,
      "ĠOf": 5041,
      "tless": 5042,
      "awed": 5043,
      "aching": 5044,
      "Ġwherever": 5045,
      "Ġsecurity": 5046,
      "ending": 5047,
      "Which": 5048,
      "Ġentering": 5049,
      "Ġstranger": 5050,
      "ampire": 5051,
      "Ġprove": 5052,
      "appeared": 5053,
      "please": 5054,
      "Ġamazement": 5055,
      "Ġcalling": 5056,
      "Ġsquare": 5057,
      "ĠStand": 5058,
      "ĠIntern": 5059,
      "Ġminds": 5060,
      "Ġbadges": 5061,
      "Ġhorse": 5062,
      "Ġdeeper": 5063,
      "Ġrule": 5064,
      "Ġweekend": 5065,
      "Ġinstant": 5066,
      "Ġinstantly": 5067,
      "ĠAnimag": 5068,
      "Ġattacks": 5069,
      "Ġpainful": 5070,
      "Ġobs": 5071,
      "Ġsweet": 5072,
      "velve": 5073,
      "Ġsevere": 5074,
      "Ġreply": 5075,
      "Ġkitchens": 5076,
      "Ġdeliver": 5077,
      "Ġexams": 5078,
      "Ġsneak": 5079,
      "Ġpictures": 5080,
      "Ġburned": 5081,
      "ĠHufflepuffs": 5082,
      "Ġillumin": 5083,
      "Ġgrab": 5084,
      "Ġignore": 5085,
      "Ġignoring": 5086,
      "Ġconsid": 5087,
      "Ġpowder": 5088,
      "Ġincre": 5089,
      "glass": 5090,
      "Ġfigures": 5091,
      "Ġcurious": 5092,
      "ĠĠĠĠĠĠĠĠ": 5093,
      "Ġshrugged": 5094,
      "Ġteaching": 5095,
      "Ġrelieved": 5096,
      "Ġcards": 5097,
      "Ġstruggled": 5098,
      "Ġskrewt": 5099,
      "Ġsuspiciously": 5100,
      "Ġbewildered": 5101,
      "Ġordinary": 5102,
      "Ġtemper": 5103,
      "Ġpotat": 5104,
      "Ġhooded": 5105,
      "Ġzoomed": 5106,
      "going": 5107,
      "Ġspectacles": 5108,
      "Ġincluding": 5109,
      "Ġchildren": 5110,
      "Ġpersuade": 5111,
      "ĠFinally": 5112,
      "Ġconcerned": 5113,
      "Ġmurmured": 5114,
      "ĠBox": 5115,
      "orgin": 5116,
      "Ġevidence": 5117,
      "Ġindignantly": 5118,
      "Ġwelcome": 5119,
      "ĠOwlery": 5120,
      "Ġthoroughly": 5121,
      "Ġinvolved": 5122,
      "Ġchicken": 5123,
      "Ġnewspaper": 5124,
      "Ġmilk": 5125,
      "IGHT": 5126,
      "ĠDisappar": 5127,
      "ĠImperius": 5128,
      "wolves": 5129,
      "ĠPensieve": 5130,
      "arkinson": 5131,
      "ĠInternational": 5132,
      "\"...": 5133,
      "Cl": 5134,
      "EA": 5135,
      "En": 5136,
      "Even": 5137,
      "Five": 5138,
      "Krum": 5139,
      "Ooo": 5140,
      "Take": 5141,
      "YOU": 5142,
      "aly": 5143,
      "aunt": 5144,
      "bag": 5145,
      "iot": 5146,
      "must": 5147,
      "put": 5148,
      "sna": 5149,
      "tell": 5150,
      "Ġ?\"": 5151,
      "Ġvelve": 5152,
      "Ġtie": 5153,
      "Ġtapped": 5154,
      "Ġtasks": 5155,
      "Ġaward": 5156,
      "Ġsinging": 5157,
      "Ġharm": 5158,
      "arily": 5159,
      "Ġborn": 5160,
      "Ġboring": 5161,
      "real": 5162,
      "Ġfo": 5163,
      "Ġfal": 5164,
      "atic": 5165,
      "atches": 5166,
      "asper": 5167,
      "Ġcertain": 5168,
      "Ġcorre": 5169,
      "Ġdim": 5170,
      "Ġdest": 5171,
      "Ġdarted": 5172,
      "Ġheight": 5173,
      "Ġhearing": 5174,
      "Ġmuffled": 5175,
      "Ġthread": 5176,
      "Ġlan": 5177,
      "Ġpill": 5178,
      "adog": 5179,
      "Ġgall": 5180,
      "Ġgaze": 5181,
      "Ġsav": 5182,
      "Ġstubb": 5183,
      "vered": 5184,
      "etaker": 5185,
      "changed": 5186,
      "outhed": 5187,
      "ĠMand": 5188,
      "ĠMaster": 5189,
      "ĠMudblood": 5190,
      "Ġhairy": 5191,
      "rodu": 5192,
      "urry": 5193,
      "ĠSc": 5194,
      "ĠSm": 5195,
      "ĠSp": 5196,
      "ĠSna": 5197,
      "ĠSorcerer": 5198,
      "ithman": 5199,
      "Ġreb": 5200,
      "ĠParkinson": 5201,
      "Ġself": 5202,
      "Ġfork": 5203,
      "ĠRonan": 5204,
      "Ġris": 5205,
      "Ġrot": 5206,
      "Ġrush": 5207,
      "Ġkid": 5208,
      "Ġlepre": 5209,
      "ĠBus": 5210,
      "ĠBorgin": 5211,
      "icated": 5212,
      "Ġliqu": 5213,
      "Ġlikes": 5214,
      "Ġjuice": 5215,
      "Ġsoaring": 5216,
      "iftly": 5217,
      "ĠTell": 5218,
      "Ġvac": 5219,
      "Ġvict": 5220,
      "erson": 5221,
      "Ġpoking": 5222,
      "iece": 5223,
      "Ġyours": 5224,
      "Ġunlike": 5225,
      "Ġslumped": 5226,
      "Ġslimy": 5227,
      "Ġcomes": 5228,
      "olute": 5229,
      "Ġorder": 5230,
      "Ġbringing": 5231,
      "Ġarr": 5232,
      "Ġswooped": 5233,
      "Ġswiftly": 5234,
      "ĠEn": 5235,
      "Ġgrunted": 5236,
      "Ġspeech": 5237,
      "Ġbetr": 5238,
      "Ġunderneath": 5239,
      "Ġremaining": 5240,
      "Ġhurting": 5241,
      "arming": 5242,
      "Ġcaretaker": 5243,
      "Ġelbow": 5244,
      "Ġstudying": 5245,
      "Ġmeaning": 5246,
      "erva": 5247,
      "ĠYeh": 5248,
      "Ġsteady": 5249,
      "ibr": 5250,
      "Ġbroadly": 5251,
      "Ġdisappro": 5252,
      "Ġresp": 5253,
      "Ġrecord": 5254,
      "cially": 5255,
      "Ġsqueak": 5256,
      "ĠForbidden": 5257,
      "Ġclosing": 5258,
      "Ġrefused": 5259,
      "voice": 5260,
      "Ġsuspected": 5261,
      "Ġpracticing": 5262,
      "Shut": 5263,
      "Ġghosts": 5264,
      "coming": 5265,
      "Ġimmense": 5266,
      "Ġcoat": 5267,
      "Ġcutting": 5268,
      "Ġintrodu": 5269,
      "Ġpatronum": 5270,
      "Ġsixth": 5271,
      "Ġfoolish": 5272,
      "Ġzooming": 5273,
      "Ġflickered": 5274,
      "Ġconcentrate": 5275,
      "Ġhonor": 5276,
      "Ġappearance": 5277,
      "Ġconnected": 5278,
      "Ġtelephone": 5279,
      "Ġaccidentally": 5280,
      "Ġwheeled": 5281,
      "Ġlarger": 5282,
      "Ġseventeen": 5283,
      "Ġobjects": 5284,
      "Ġmagnificent": 5285,
      "Ġgathered": 5286,
      "colored": 5287,
      "Ġinterrupted": 5288,
      "Ġpredict": 5289,
      "Ġsafety": 5290,
      "Ġdisbelief": 5291,
      "Ġfeeble": 5292,
      "Ġerupted": 5293,
      "Ġaccompanied": 5294,
      "ithmancy": 5295,
      "Ġleprechaun": 5296,
      "ACK": 5297,
      "Didn": 5298,
      "EC": 5299,
      "Fleur": 5300,
      "Her": 5301,
      "Im": 5302,
      "Mum": 5303,
      "Rem": 5304,
      "Rita": 5305,
      "Stop": 5306,
      "Ten": 5307,
      "Two": 5308,
      "Would": 5309,
      "breat": 5310,
      "call": 5311,
      "cold": 5312,
      "gu": 5313,
      "ger": 5314,
      "gal": 5315,
      "iantly": 5316,
      "krew": 5317,
      "nerv": 5318,
      "pting": 5319,
      "sk": 5320,
      "sil": 5321,
      "whe": 5322,
      "want": 5323,
      "watching": 5324,
      "ynch": 5325,
      "Ġille": 5326,
      "Ġtast": 5327,
      "Ġtucked": 5328,
      "Ġsuper": 5329,
      "Ġwo": 5330,
      "Ġwinning": 5331,
      "edly": 5332,
      "onestly": 5333,
      "Ġbars": 5334,
      "Ġbanging": 5335,
      "Ġfond": 5336,
      "Ġfence": 5337,
      "Ġfuture": 5338,
      "Ġfascin": 5339,
      "ities": 5340,
      "Ġcook": 5341,
      "Ġcamera": 5342,
      "llo": 5343,
      "ennis": 5344,
      "Ġdaring": 5345,
      "Ġdunno": 5346,
      "Ġheels": 5347,
      "Ġmild": 5348,
      "Ġmiles": 5349,
      "Ġpush": 5350,
      "Ġpacing": 5351,
      "Ġpipe": 5352,
      "Ġgrew": 5353,
      "oof": 5354,
      "Ġniff": 5355,
      "Ġbeam": 5356,
      "Ġstir": 5357,
      "veling": 5358,
      "ether": 5359,
      "Ġumb": 5360,
      "outed": 5361,
      "ĠMor": 5362,
      "ĠMore": 5363,
      "ags": 5364,
      "Ġate": 5365,
      "alk": 5366,
      "along": 5367,
      "almost": 5368,
      "ĠSqu": 5369,
      "ĠSchool": 5370,
      "ĠSummon": 5371,
      "ĠRidd": 5372,
      "Ġrese": 5373,
      "ores": 5374,
      "Ġsele": 5375,
      "Ġshiny": 5376,
      "Ġshimmering": 5377,
      "Ġracing": 5378,
      "Ġoutta": 5379,
      "ĠHeir": 5380,
      "ĠBar": 5381,
      "ĠBroomsticks": 5382,
      "usion": 5383,
      "elled": 5384,
      "ĠFrom": 5385,
      "Ġknight": 5386,
      "Ġjug": 5387,
      "essed": 5388,
      "ride": 5389,
      "Ġclicking": 5390,
      "Ġwhoever": 5391,
      "ĠTop": 5392,
      "Ġexhaust": 5393,
      "Ġaloud": 5394,
      "Ġalthough": 5395,
      "ctor": 5396,
      "Ġchanging": 5397,
      "open": 5398,
      "ĠNOT": 5399,
      "Ġworrying": 5400,
      "Ġfluttered": 5401,
      "Ġblind": 5402,
      "Ġblond": 5403,
      "Ġblinding": 5404,
      "Ġhanding": 5405,
      "Ġscra": 5406,
      "Ġscrew": 5407,
      "Ġscribb": 5408,
      "osen": 5409,
      "osure": 5410,
      "Ġconst": 5411,
      "Ġconvinced": 5412,
      "Ġroad": 5413,
      "Ġropes": 5414,
      "Ġtwisting": 5415,
      "Ġtwitching": 5416,
      "Ġsmashed": 5417,
      "ĠIts": 5418,
      "Ġbrains": 5419,
      "Ġswimming": 5420,
      "Ġgrump": 5421,
      "uffs": 5422,
      "Ġstartled": 5423,
      "Ġknee": 5424,
      "Ġacce": 5425,
      "Ġaccept": 5426,
      "Ġwaist": 5427,
      "Ġremain": 5428,
      "Ġsecrets": 5429,
      "Ġprefer": 5430,
      "Ġcheers": 5431,
      "Ġcheek": 5432,
      "Ġprospect": 5433,
      "Ġcrate": 5434,
      "umping": 5435,
      "Ġwhispering": 5436,
      "Ġjoking": 5437,
      "Ġsmaller": 5438,
      "ĠInstead": 5439,
      "Ġraise": 5440,
      "Ġraising": 5441,
      "Ġstopping": 5442,
      "Ġfriendly": 5443,
      "Ġkilling": 5444,
      "iculous": 5445,
      "Ġhorrified": 5446,
      "ĠGrim": 5447,
      "Ġcurled": 5448,
      "Ġhitting": 5449,
      "Ġribs": 5450,
      "rella": 5451,
      "Ġdecide": 5452,
      "Ġrespect": 5453,
      "Ern": 5454,
      "Ġcompany": 5455,
      "Ġrattling": 5456,
      "nothing": 5457,
      "however": 5458,
      "Ġinsisted": 5459,
      "Ġexamined": 5460,
      "Ġrounded": 5461,
      "Ġpurpose": 5462,
      "Ġsprinted": 5463,
      "Once": 5464,
      "ĠUnder": 5465,
      "Ġunconscious": 5466,
      "kerchief": 5467,
      "Ġassist": 5468,
      "Ġfreed": 5469,
      "Ġtort": 5470,
      "Ġguarding": 5471,
      "Ġspeeding": 5472,
      "Ġfroze": 5473,
      "Ġfrozen": 5474,
      "ĠSeveral": 5475,
      "Ġpromise": 5476,
      "Ġmountain": 5477,
      "Ready": 5478,
      "Ġoccasion": 5479,
      "Ġrecognize": 5480,
      "Ġsuspicious": 5481,
      "Ġmoonlight": 5482,
      "Ġfists": 5483,
      "Ġgloomily": 5484,
      "Ġsobbed": 5485,
      "Ġpuzzled": 5486,
      "Ġshivering": 5487,
      "Ġanimal": 5488,
      "Ġcompete": 5489,
      "aresay": 5490,
      "Ġchuckled": 5491,
      "Severus": 5492,
      "ĠPolyjuice": 5493,
      "Ġshrilly": 5494,
      "Ġenclosure": 5495,
      "Dursleys": 5496,
      "Ġadmir": 5497,
      "Ġawkwardly": 5498,
      "ĠOUT": 5499,
      "Ġdistinctly": 5500,
      "Ġstrength": 5501,
      "Ġashamed": 5502,
      "Ġtwinkling": 5503,
      "Ġmysterious": 5504,
      "Ġidiot": 5505,
      "Ġsuccess": 5506,
      "Ġparcel": 5507,
      "Ġbodies": 5508,
      "Ġlantern": 5509,
      "adogan": 5510,
      ",'": 5511,
      "Buckbeak": 5512,
      "Dad": 5513,
      "DOR": 5514,
      "EE": 5515,
      "Ended": 5516,
      "Give": 5517,
      "Hi": 5518,
      "Hang": 5519,
      "IC": 5520,
      "Nearly": 5521,
      "TH": 5522,
      "UR": 5523,
      "VEN": 5524,
      "Wonder": 5525,
      "ales": 5526,
      "des": 5527,
      "dfather": 5528,
      "either": 5529,
      "gn": 5530,
      "io": 5531,
      "iet": 5532,
      "iers": 5533,
      "knew": 5534,
      "ma": 5535,
      "might": 5536,
      "magic": 5537,
      "moon": 5538,
      "sur": 5539,
      "say": 5540,
      "sized": 5541,
      "uary": 5542,
      "yes": 5543,
      "Ġ3": 5544,
      "Ġze": 5545,
      "Ġtearing": 5546,
      "Ġapol": 5547,
      "inter": 5548,
      "Ġsinking": 5549,
      "Ġsoul": 5550,
      "edd": 5551,
      "erved": 5552,
      "Ġhill": 5553,
      "Ġhudd": 5554,
      "once": 5555,
      "Ġbacon": 5556,
      "Ġfaced": 5557,
      "isc": 5558,
      "itude": 5559,
      "ĠHave": 5560,
      "Ġcra": 5561,
      "Ġcap": 5562,
      "Ġcared": 5563,
      "orter": 5564,
      "idy": 5565,
      "Ġdue": 5566,
      "Ġdimly": 5567,
      "Ġdarting": 5568,
      "Ġheal": 5569,
      "Ġheaven": 5570,
      "Ġlaid": 5571,
      "Ġpal": 5572,
      "Ġpitch": 5573,
      "Ġpaying": 5574,
      "Ġpaddock": 5575,
      "Ġglee": 5576,
      "lying": 5577,
      "Ġsaus": 5578,
      "Ġnon": 5579,
      "Ġbeating": 5580,
      "omb": 5581,
      "omes": 5582,
      "oment": 5583,
      "ĠIN": 5584,
      "Ġ-?\"": 5585,
      "uty": 5586,
      "utes": 5587,
      "ĠMaybe": 5588,
      "agging": 5589,
      "Their": 5590,
      "ĠRest": 5591,
      "ĠPiers": 5592,
      "Ġseizing": 5593,
      "Ġshone": 5594,
      "Ġshif": 5595,
      "Ġshame": 5596,
      "Ġshoes": 5597,
      "Ġrows": 5598,
      "Ġrumbling": 5599,
      "told": 5600,
      "ĠCadogan": 5601,
      "ĠBrit": 5602,
      "ilty": 5603,
      "icolas": 5604,
      "ĠFrid": 5605,
      "Ġgoin": 5606,
      "Ġgodfather": 5607,
      "Ġknot": 5608,
      "Ġknife": 5609,
      "Ġjinx": 5610,
      "ĠGet": 5611,
      "Ġclenched": 5612,
      "ourish": 5613,
      "Ġexp": 5614,
      "Ġvast": 5615,
      "Ġgotta": 5616,
      "ulously": 5617,
      "Ġspy": 5618,
      "Ġnowhere": 5619,
      "Ġworks": 5620,
      "Ġhandkerchief": 5621,
      "Ġune": 5622,
      "Ġunl": 5623,
      "Ġslither": 5624,
      "apers": 5625,
      "Ġwhenever": 5626,
      "ounds": 5627,
      "Ġcond": 5628,
      "Ġtwig": 5629,
      "Ġcomment": 5630,
      "Ġhowling": 5631,
      "Ġtray": 5632,
      "Ġbrass": 5633,
      "neak": 5634,
      "Ġenem": 5635,
      "Ġswam": 5636,
      "Ġswirling": 5637,
      "Ġletting": 5638,
      "Ġgras": 5639,
      "Ġpeace": 5640,
      "ĠChocolate": 5641,
      "obbing": 5642,
      "play": 5643,
      "plain": 5644,
      "ishly": 5645,
      "ailing": 5646,
      "Ġtalked": 5647,
      "ursday": 5648,
      "Ġprov": 5649,
      "Ġbits": 5650,
      "Ġmustn": 5651,
      "igned": 5652,
      "Ġamazed": 5653,
      "Ġowned": 5654,
      "Ġsnakes": 5655,
      "lier": 5656,
      "wasn": 5657,
      "Ġpleasure": 5658,
      "Ġsteam": 5659,
      "Ġstraw": 5660,
      "Ġhorribly": 5661,
      "Ġdrove": 5662,
      "Ġbroad": 5663,
      "ĠAragog": 5664,
      "ĠThursday": 5665,
      "Ġplayers": 5666,
      "Ġruined": 5667,
      "ĠĠĊ": 5668,
      "Ġrig": 5669,
      "Ġthickly": 5670,
      "Ġseries": 5671,
      "ashion": 5672,
      "OUR": 5673,
      "Ġpersonal": 5674,
      "Ġcats": 5675,
      "Ġsentence": 5676,
      "Ġloved": 5677,
      "hands": 5678,
      "Ġsneaking": 5679,
      "Ġsubst": 5680,
      "Ġflatly": 5681,
      "Ġferret": 5682,
      "anning": 5683,
      "Ġ.....": 5684,
      "Ġbottles": 5685,
      "Ġgrave": 5686,
      "Ġpatting": 5687,
      "Ġcracked": 5688,
      "Ġnarrowed": 5689,
      "AND": 5690,
      "Ġfrog": 5691,
      "aturally": 5692,
      "Ġadvice": 5693,
      "Ġjumping": 5694,
      "Ġrelax": 5695,
      "Ġafford": 5696,
      "Ġbewitched": 5697,
      "Ġprefects": 5698,
      "Arthur": 5699,
      "Ġpubl": 5700,
      "Ġgroaned": 5701,
      "Ġmiserable": 5702,
      "Ġnoises": 5703,
      "Ġpouring": 5704,
      "ĠSpells": 5705,
      "Ġnerve": 5706,
      "Ġhoarsely": 5707,
      "Ġmotionless": 5708,
      "ĠKeeper": 5709,
      "Firebolt": 5710,
      "Ġenchanted": 5711,
      "Ġsym": 5712,
      "Ġglimpse": 5713,
      "Ġroughly": 5714,
      "Ġbeckoned": 5715,
      "Ġcrumpled": 5716,
      "Ġserpent": 5717,
      "Ġstaggered": 5718,
      "Ġvaguely": 5719,
      "Ġbreeze": 5720,
      "Ġstubborn": 5721,
      "Ġliquid": 5722,
      "ĠRiddles": 5723,
      "12": 5724,
      "AL": 5725,
      "Could": 5726,
      "Certainly": 5727,
      "Fine": 5728,
      "From": 5729,
      "House": 5730,
      "KS": 5731,
      "Next": 5732,
      "Sir": 5733,
      "Sec": 5734,
      "Wait": 5735,
      "Welcome": 5736,
      "aur": 5737,
      "auding": 5738,
      "car": 5739,
      "cont": 5740,
      "eal": 5741,
      "free": 5742,
      "gi": 5743,
      "grown": 5744,
      "hou": 5745,
      "hor": 5746,
      "jo": 5747,
      "kins": 5748,
      "lit": 5749,
      "moment": 5750,
      "rot": 5751,
      "tre": 5752,
      "take": 5753,
      "vid": 5754,
      "wall": 5755,
      "zling": 5756,
      "Ġtart": 5757,
      "Ġtaught": 5758,
      "inc": 5759,
      "Ġsle": 5760,
      "Ġsigh": 5761,
      "Ġwinking": 5762,
      "Ġwoken": 5763,
      "oub": 5764,
      "ouched": 5765,
      "Ġhid": 5766,
      "Ġhint": 5767,
      "arc": 5768,
      "arf": 5769,
      "Ġboo": 5770,
      "Ġbann": 5771,
      "Ġbounced": 5772,
      "reg": 5773,
      "Ġfart": 5774,
      "Ġtot": 5775,
      "atus": 5776,
      "ative": 5777,
      "atively": 5778,
      "ĠHIM": 5779,
      "legged": 5780,
      "Ġdully": 5781,
      "Ġdashing": 5782,
      "Ġdaresay": 5783,
      "Ġhero": 5784,
      "Ġmumbled": 5785,
      "Ġmember": 5786,
      "Ġlined": 5787,
      "Ġpalm": 5788,
      "adily": 5789,
      "Ġgest": 5790,
      "Ġgarg": 5791,
      "Ġinjured": 5792,
      "Ġsand": 5793,
      "otes": 5794,
      "Ġeag": 5795,
      "iment": 5796,
      "sto": 5797,
      "vern": 5798,
      "etch": 5799,
      "chie": 5800,
      "ĠMer": 5801,
      "rode": 5802,
      "ality": 5803,
      "amous": 5804,
      "ĠSC": 5805,
      "ĠSkrew": 5806,
      "terge": 5807,
      "Ġrev": 5808,
      "Ġreck": 5809,
      "Ġrever": 5810,
      "rouble": 5811,
      "ĠDennis": 5812,
      "Ġancient": 5813,
      "Ġforgive": 5814,
      "uming": 5815,
      "Ġshaken": 5816,
      "Ġshooting": 5817,
      "Ġupright": 5818,
      "Ġrap": 5819,
      "ĠWar": 5820,
      "Ġkick": 5821,
      "Ġoutr": 5822,
      "pecially": 5823,
      "ands": 5824,
      "unting": 5825,
      "ĠAT": 5826,
      "ĠAh": 5827,
      "Ġwerewolves": 5828,
      "ĠBur": 5829,
      "ĠBane": 5830,
      "uses": 5831,
      "ĠFOR": 5832,
      "uster": 5833,
      "ĠGood": 5834,
      "Ġbacks": 5835,
      "Ġweed": 5836,
      "Ġshelves": 5837,
      "ortunity": 5838,
      "ĠLynch": 5839,
      "Ġexasper": 5840,
      "Ġvig": 5841,
      "Ġvault": 5842,
      "Ġanythin": 5843,
      "Ġspare": 5844,
      "Ġchose": 5845,
      "Ġchosen": 5846,
      "oped": 5847,
      "Hey": 5848,
      "theless": 5849,
      "Ġsuck": 5850,
      "ogging": 5851,
      "Ġfluttering": 5852,
      "Ġmyst": 5853,
      "Ġblinking": 5854,
      "Ġblazing": 5855,
      "three": 5856,
      "Ġunfortun": 5857,
      "Ġsliding": 5858,
      "Ġslipping": 5859,
      "Ġplant": 5860,
      "Ġplainly": 5861,
      "oscope": 5862,
      "Ġconv": 5863,
      "Ġroaring": 5864,
      "olk": 5865,
      "Ġhowled": 5866,
      "ggling": 5867,
      "Ġturns": 5868,
      "Ġgliding": 5869,
      "need": 5870,
      "ĠOff": 5871,
      "ĠKnight": 5872,
      "Ġhappier": 5873,
      "Ġunderground": 5874,
      "ucking": 5875,
      "Ġdrank": 5876,
      "Ġprevent": 5877,
      "Ġstrained": 5878,
      "Ġdesks": 5879,
      "Ġamazing": 5880,
      "Ġcars": 5881,
      "Ġcontr": 5882,
      "Ġsitu": 5883,
      "Ġfires": 5884,
      "Ġsnorted": 5885,
      "Ġsquashed": 5886,
      "ips": 5887,
      "Ġimpro": 5888,
      "ĠStud": 5889,
      "Ġalongside": 5890,
      "Ġforeign": 5891,
      "uries": 5892,
      "abbed": 5893,
      "Ġsnap": 5894,
      "orridge": 5895,
      "Ġpartners": 5896,
      "Ġbuz": 5897,
      "Ġbuild": 5898,
      "Ġpainting": 5899,
      "ĠBeaters": 5900,
      "Ġhurriedly": 5901,
      "ltongue": 5902,
      "forward": 5903,
      "rolling": 5904,
      "Ġclimbing": 5905,
      "Ġmatters": 5906,
      "Ġmistaken": 5907,
      "Still": 5908,
      "Ġhissing": 5909,
      "Ġtrace": 5910,
      "Ġhurtled": 5911,
      "Ġmemories": 5912,
      "Ġsneaked": 5913,
      "Ġdetention": 5914,
      "Ġinformed": 5915,
      "Ġboxes": 5916,
      "Ġbroomsticks": 5917,
      "Ġopportunity": 5918,
      "Ġtrolley": 5919,
      "eptember": 5920,
      "ANG": 5921,
      "Ġsunlight": 5922,
      "Ġcausing": 5923,
      "Ġroof": 5924,
      "Ġsearched": 5925,
      "Ġpolice": 5926,
      "Ġdepartment": 5927,
      "ĠPatil": 5928,
      "small": 5929,
      "Ġaffect": 5930,
      "Ġbothered": 5931,
      "Ġcandle": 5932,
      "Ġbattle": 5933,
      "Ġsubjects": 5934,
      "Ġdusty": 5935,
      "Ġpinc": 5936,
      "Ġperformed": 5937,
      "Ġshivered": 5938,
      "Ġsmoothly": 5939,
      "ENTY": 5940,
      "ĠRemus": 5941,
      "Ġtelevision": 5942,
      "Ġtickets": 5943,
      "Ġbelonged": 5944,
      "Keeper": 5945,
      "Ġnerves": 5946,
      "Ġpressing": 5947,
      "Ġapprehens": 5948,
      "Ġmodel": 5949,
      "Ġpudding": 5950,
      "Ġcurses": 5951,
      "Ġreceived": 5952,
      "ĠTWENTY": 5953,
      "Ġbushy": 5954,
      "Ġurgently": 5955,
      "Ministry": 5956,
      "ĠPadma": 5957,
      "Ġsqueezed": 5958,
      "Ġwrenched": 5959,
      "Ġmurdered": 5960,
      "Ġrustling": 5961,
      "Ġpiercing": 5962,
      "Ġexecution": 5963,
      "pulled": 5964,
      "Ġlazily": 5965,
      "Ġbetrayed": 5966,
      "ĠMoran": 5967,
      "ĠSummoning": 5968,
      "ĠRestri": 5969,
      "ĠBritain": 5970,
      "tergeist": 5971,
      "\".": 5972,
      "14": 5973,
      "16": 5974,
      "BLE": 5975,
      "Hall": 5976,
      "Honestly": 5977,
      "IL": 5978,
      "Most": 5979,
      "Ouch": 5980,
      "Pre": 5981,
      "QU": 5982,
      "Sil": 5983,
      "Too": 5984,
      "cess": 5985,
      "cross": 5986,
      "crowd": 5987,
      "corrid": 5988,
      "craft": 5989,
      "done": 5990,
      "fa": 5991,
      "fy": 5992,
      "fire": 5993,
      "gone": 5994,
      "gold": 5995,
      "gress": 5996,
      "giant": 5997,
      "ient": 5998,
      "iks": 5999,
      "lp": 6000,
      "list": 6001,
      "made": 6002,
      "past": 6003,
      "someone": 6004,
      "trying": 6005,
      "uous": 6006,
      "ulf": 6007,
      "wood": 6008,
      "warf": 6009,
      "ĠZ": 6010,
      "Ġident": 6011,
      "Ġtin": 6012,
      "Ġtear": 6013,
      "Ġtakes": 6014,
      "Ġbouncing": 6015,
      "really": 6016,
      "Ġfill": 6017,
      "Ġfix": 6018,
      "Ġfuss": 6019,
      "Ġfilling": 6020,
      "Ġtoff": 6021,
      "Ġtooth": 6022,
      "atically": 6023,
      "ision": 6024,
      "asked": 6025,
      "Ġcave": 6026,
      "Ġcrouch": 6027,
      "Ġcamp": 6028,
      "ences": 6029,
      "Ġden": 6030,
      "Ġdrive": 6031,
      "Ġdwarf": 6032,
      "Ġhello": 6033,
      "Ġmal": 6034,
      "Ġmerm": 6035,
      "Ġthumb": 6036,
      "Ġlamps": 6037,
      "Ġlops": 6038,
      "Ġpig": 6039,
      "Ġpup": 6040,
      "Ġpurs": 6041,
      "Ġporridge": 6042,
      "Ġgang": 6043,
      "Ġinvent": 6044,
      "especially": 6045,
      "Ġsal": 6046,
      "Ġsack": 6047,
      "Ġnorth": 6048,
      "Ġbeast": 6049,
      "otor": 6050,
      "Ġequ": 6051,
      "Ġstack": 6052,
      "Ġstif": 6053,
      "strode": 6054,
      "chley": 6055,
      "utiously": 6056,
      "ĠMA": 6057,
      "ĠMom": 6058,
      "ĠMal": 6059,
      "Ġwhirled": 6060,
      "agine": 6061,
      "Ġhamm": 6062,
      "rock": 6063,
      "rolled": 6064,
      "robably": 6065,
      "ĠSick": 6066,
      "ĠSomething": 6067,
      "ĠSneak": 6068,
      "ĠSeptember": 6069,
      "kept": 6070,
      "ĠRight": 6071,
      "term": 6072,
      "Ġrele": 6073,
      "Ġrevol": 6074,
      "ĠDidn": 6075,
      "Ġshabby": 6076,
      "Ġrude": 6077,
      "ĠCruci": 6078,
      "Ġleap": 6079,
      "ĠAbout": 6080,
      "ĠBE": 6081,
      "emory": 6082,
      "Ġlied": 6083,
      "Ġlies": 6084,
      "Ġjaw": 6085,
      "ĠGot": 6086,
      "Ġclamped": 6087,
      "Ġsobs": 6088,
      "Ġexist": 6089,
      "Ġexchanged": 6090,
      "Ġvol": 6091,
      "Ġviv": 6092,
      "Ġvibr": 6093,
      "aul": 6094,
      "Ġoverheard": 6095,
      "Ġpoked": 6096,
      "Ġchar": 6097,
      "Ġchains": 6098,
      "angu": 6099,
      "Ġblock": 6100,
      "Ġblocked": 6101,
      "Ġunmist": 6102,
      "Ġslide": 6103,
      "Ġslugs": 6104,
      "Ġscut": 6105,
      "Ġconj": 6106,
      "Ġwandering": 6107,
      "Ġglo": 6108,
      "ĠOver": 6109,
      "being": 6110,
      "began": 6111,
      "Ġenc": 6112,
      "Ġensure": 6113,
      "Ġrooms": 6114,
      "ĠKn": 6115,
      "ĠKnow": 6116,
      "Ġunderwater": 6117,
      "obbled": 6118,
      "onsense": 6119,
      "ording": 6120,
      "Ġstrang": 6121,
      "Ġproceeded": 6122,
      "Ġdesce": 6123,
      "Ġnightm": 6124,
      "Ġamount": 6125,
      "Ġstudy": 6126,
      "ighb": 6127,
      "ĠMinerva": 6128,
      "blue": 6129,
      "Ġmeanwhile": 6130,
      "Ġbreathe": 6131,
      "teac": 6132,
      "Ġpartner": 6133,
      "Ġbund": 6134,
      "ĠGrubb": 6135,
      "Ġcurly": 6136,
      "ĠArithmancy": 6137,
      "Ġinterview": 6138,
      "Ġteams": 6139,
      "Ġguilty": 6140,
      "isters": 6141,
      "ĠBehind": 6142,
      "asket": 6143,
      "letchley": 6144,
      "Ġresc": 6145,
      "phy": 6146,
      "Ġgasp": 6147,
      "Another": 6148,
      "Myrtle": 6149,
      "weed": 6150,
      "Stand": 6151,
      "Ġdrawn": 6152,
      "Ġspellbooks": 6153,
      "mbled": 6154,
      "Exactly": 6155,
      "Expecto": 6156,
      "Ġgiants": 6157,
      "Ġsuspe": 6158,
      "Ġcollar": 6159,
      "Ġcollaps": 6160,
      "Ġyounger": 6161,
      "Ġflatt": 6162,
      "Ġemerald": 6163,
      "Ġuncertainly": 6164,
      "version": 6165,
      "Ġintently": 6166,
      "Ġeaten": 6167,
      "ambered": 6168,
      "ĠSecret": 6169,
      "Ġcautiously": 6170,
      "Ġavoided": 6171,
      "Ġholiday": 6172,
      "Ġapplauding": 6173,
      "Chamber": 6174,
      "Ġprotection": 6175,
      "Ġfaintly": 6176,
      "afa": 6177,
      "Ġoccur": 6178,
      "Ġlocker": 6179,
      "ĠWizarding": 6180,
      "Ġbleeding": 6181,
      "Ġbirds": 6182,
      "Ġhooting": 6183,
      "Ġgloomy": 6184,
      "Ġmusic": 6185,
      "Ġunpleasantly": 6186,
      "Ġargum": 6187,
      "Ġspectac": 6188,
      "Ġnoisy": 6189,
      "ĠMostafa": 6190,
      "ĠAnyway": 6191,
      "Defense": 6192,
      "Ġpoured": 6193,
      "Ġannoyed": 6194,
      "Ġgulped": 6195,
      "IRT": 6196,
      "Ġcourage": 6197,
      "Ġwardrobe": 6198,
      "Ġchattering": 6199,
      "Ġrumors": 6200,
      "gypt": 6201,
      "Ġshudder": 6202,
      "Ġpopular": 6203,
      "Ġflooding": 6204,
      "Leave": 6205,
      "Ġessay": 6206,
      "Ġwidening": 6207,
      "Ġgener": 6208,
      "Ġdrifting": 6209,
      "Ġbubbles": 6210,
      "Ġlength": 6211,
      "ĠMacnair": 6212,
      "break": 6213,
      "dementor": 6214,
      "seemed": 6215,
      "Ġexperience": 6216,
      "Ġharsh": 6217,
      "Ġankles": 6218,
      "Ġilluminated": 6219,
      "Ġconsidered": 6220,
      "Ġvelvet": 6221,
      "Ġintroduce": 6222,
      "Ġillegal": 6223,
      "Ġumbrella": 6224,
      "Ġscrewed": 6225,
      "Ġpublic": 6226,
      "Ġeagle": 6227,
      "ĠBurrow": 6228,
      "Ġlopsided": 6229,
      "ĠCruciatus": 6230,
      "Ġunmistak": 6231,
      "ĠGrubbly": 6232,
      "AM": 6233,
      "About": 6234,
      "Dark": 6235,
      "Fawkes": 6236,
      "Fletchley": 6237,
      "Great": 6238,
      "Half": 6239,
      "Po": 6240,
      "Perhaps": 6241,
      "SE": 6242,
      "Up": 6243,
      "UFF": 6244,
      "Viktor": 6245,
      "Yet": 6246,
      "cut": 6247,
      "caught": 6248,
      "cuse": 6249,
      "covered": 6250,
      "ded": 6251,
      "disapp": 6252,
      "filled": 6253,
      "hu": 6254,
      "hur": 6255,
      "half": 6256,
      "houses": 6257,
      "ially": 6258,
      "iety": 6259,
      "jar": 6260,
      "ko": 6261,
      "lers": 6262,
      "mber": 6263,
      "mouth": 6264,
      "oving": 6265,
      "pot": 6266,
      "person": 6267,
      "rons": 6268,
      "ruding": 6269,
      "sing": 6270,
      "spe": 6271,
      "tone": 6272,
      "telling": 6273,
      "trouble": 6274,
      "van": 6275,
      "won": 6276,
      "wing": 6277,
      "watch": 6278,
      "witch": 6279,
      "wee": 6280,
      "wiks": 6281,
      "Ġ`": 6282,
      "Ġver": 6283,
      "Ġespecially": 6284,
      "Ġtipped": 6285,
      "Ġtangled": 6286,
      "hest": 6287,
      "Ġaction": 6288,
      "Ġajar": 6289,
      "inside": 6290,
      "Ġsilly": 6291,
      "Ġwinked": 6292,
      "ouch": 6293,
      "Ġhollow": 6294,
      "Ġhooked": 6295,
      "oning": 6296,
      "onko": 6297,
      "Ġban": 6298,
      "Ġbal": 6299,
      "Ġbowing": 6300,
      "Ġbored": 6301,
      "Ġbanged": 6302,
      "Ġbench": 6303,
      "rev": 6304,
      "athing": 6305,
      "ĠHerm": 6306,
      "Ġcrou": 6307,
      "Ġcack": 6308,
      "Ġcell": 6309,
      "Ġcapt": 6310,
      "Ġcott": 6311,
      "Ġcoolly": 6312,
      "Ġdining": 6313,
      "Ġdazed": 6314,
      "Ġducked": 6315,
      "Ġdirty": 6316,
      "Ġmuddy": 6317,
      "Ġlangu": 6318,
      "Ġpix": 6319,
      "Ġpinned": 6320,
      "Ġpaces": 6321,
      "Ġpapers": 6322,
      "Ġgit": 6323,
      "anked": 6324,
      "Ġinfl": 6325,
      "Ġinvisibility": 6326,
      "oothing": 6327,
      "Ġnudged": 6328,
      "Ġeer": 6329,
      "Ġstamp": 6330,
      "Ġstamm": 6331,
      "stre": 6332,
      "ĠIT": 6333,
      "Ġupper": 6334,
      "ĠMe": 6335,
      "ĠMon": 6336,
      "riph": 6337,
      "alked": 6338,
      "ĠPol": 6339,
      "Ġforty": 6340,
      "Ġsham": 6341,
      "Ġshare": 6342,
      "Ġshows": 6343,
      "Ġrarely": 6344,
      "ĠWould": 6345,
      "ĠWIT": 6346,
      "toe": 6347,
      "Ġframe": 6348,
      "ĠCould": 6349,
      "Ġleather": 6350,
      "ĠAre": 6351,
      "Ġneighb": 6352,
      "ĠFI": 6353,
      "Ġmeasure": 6354,
      "Ġliking": 6355,
      "ĠGu": 6356,
      "Ġclunk": 6357,
      "quick": 6358,
      "Ġsheets": 6359,
      "ĠLike": 6360,
      "ĠTues": 6361,
      "rake": 6362,
      "Ġven": 6363,
      "Ġvampire": 6364,
      "Ġoffering": 6365,
      "ulus": 6366,
      "Ġspinning": 6367,
      "ĠNicolas": 6368,
      "Ġeyel": 6369,
      "Ġflower": 6370,
      "Ġflask": 6371,
      "Ġblink": 6372,
      "Ġplunged": 6373,
      "Ġscore": 6374,
      "Ġscanned": 6375,
      "Ġheadstone": 6376,
      "Ġtwin": 6377,
      "ondering": 6378,
      "idded": 6379,
      "Ġglided": 6380,
      "ĠEaster": 6381,
      "ĠEng": 6382,
      "ĠEgypt": 6383,
      "Ġgrim": 6384,
      "uffling": 6385,
      "Ġlasted": 6386,
      "oding": 6387,
      "ucky": 6388,
      "shop": 6389,
      "feet": 6390,
      "Ġschools": 6391,
      "ĠVoldemorts": 6392,
      "Ġdesire": 6393,
      "Ġcrooked": 6394,
      "ourselves": 6395,
      "Ġelves": 6396,
      "Ġcontained": 6397,
      "Ġfirelight": 6398,
      "Ġsquinted": 6399,
      "ipes": 6400,
      "Ġproof": 6401,
      "Ġbegun": 6402,
      "ĠStill": 6403,
      "Ġsmallest": 6404,
      "Ġmouths": 6405,
      "Ġsteering": 6406,
      "Ġsteadily": 6407,
      "Ġstole": 6408,
      "Ġboat": 6409,
      "Ġbuying": 6410,
      "Ġdrops": 6411,
      "Ġteacup": 6412,
      "ecting": 6413,
      "Ġdeadly": 6414,
      "Ġstraightening": 6415,
      "Ġexplaining": 6416,
      "Ġemptied": 6417,
      "Ġguilt": 6418,
      "hadn": 6419,
      "Ġripping": 6420,
      "Ġattacking": 6421,
      "Ġstuffing": 6422,
      "Ġvision": 6423,
      "ĠBefore": 6424,
      "Ġscreams": 6425,
      "without": 6426,
      "ĠFirenze": 6427,
      "Ġspotting": 6428,
      "oony": 6429,
      "Ġhopefully": 6430,
      "standing": 6431,
      "Ġgasping": 6432,
      "Ġsleepy": 6433,
      "Ġarrival": 6434,
      "Ġfifteen": 6435,
      "sitting": 6436,
      "ipper": 6437,
      "Ġinsist": 6438,
      "Ġwoods": 6439,
      "themselves": 6440,
      "Ġyoungest": 6441,
      "ĠUP": 6442,
      "Shh": 6443,
      "Ġdormitories": 6444,
      "Ġcreep": 6445,
      "Does": 6446,
      "Ġcoins": 6447,
      "Ġgrabbing": 6448,
      "Ġdeaths": 6449,
      "Ġfrightening": 6450,
      "ikulus": 6451,
      "Ġtrolls": 6452,
      "Ġguards": 6453,
      "ubby": 6454,
      "Ġhotly": 6455,
      "parent": 6456,
      "Ġadding": 6457,
      "Ġgripped": 6458,
      "Charlie": 6459,
      "words": 6460,
      "Ġenjoyed": 6461,
      "Ġdepths": 6462,
      "Ġshrugging": 6463,
      "Ġdressing": 6464,
      "Ġlunchtime": 6465,
      "Ġdrinks": 6466,
      "Ġsleeves": 6467,
      "Ġmounted": 6468,
      "Ġorders": 6469,
      "undered": 6470,
      "Ġretreat": 6471,
      "ĠWizardry": 6472,
      "Ġblasted": 6473,
      "Ġunicorns": 6474,
      "Ġkeys": 6475,
      "ctober": 6476,
      "Ġridiculous": 6477,
      "Ġcomplain": 6478,
      "Ġhangings": 6479,
      "Ġarguing": 6480,
      "Ġmenacing": 6481,
      "Ġdiscussing": 6482,
      "ohns": 6483,
      "Ġthousands": 6484,
      "Ġsurrounding": 6485,
      "Muggles": 6486,
      "Ġdreading": 6487,
      "Ġanimals": 6488,
      "Ġjeal": 6489,
      "Ġtransformed": 6490,
      "remember": 6491,
      "Ġgulp": 6492,
      "Ġreflection": 6493,
      "Ġreflected": 6494,
      "Ġturban": 6495,
      "Ġdisgusting": 6496,
      "Ġlargest": 6497,
      "Ġkissed": 6498,
      "Ġpetrified": 6499,
      "Ġblurred": 6500,
      "Ġsmirking": 6501,
      "shoulder": 6502,
      "Ġengine": 6503,
      "Ġyawned": 6504,
      "Ġgrandmother": 6505,
      "Ġsniffed": 6506,
      "Ġswayed": 6507,
      "Ġtrophy": 6508,
      "students": 6509,
      "Ġfocus": 6510,
      "Plank": 6511,
      "Ġsternly": 6512,
      "Ġshopping": 6513,
      "ĠParseltongue": 6514,
      "Ġcushion": 6515,
      "ĠAuror": 6516,
      "Ġsparkling": 6517,
      "Ġschedule": 6518,
      "Ġdestroy": 6519,
      "Ġsavage": 6520,
      "ĠSmelting": 6521,
      "Ġrisen": 6522,
      "Ġpredictions": 6523,
      "ĠBaron": 6524,
      "Ġexhausted": 6525,
      "Ernie": 6526,
      "Ġapolog": 6527,
      "ĠFriday": 6528,
      "Ġrigid": 6529,
      "Ġstubbornly": 6530,
      "Ġslept": 6531,
      "Ġfarther": 6532,
      "Ġbuzzing": 6533,
      "Ġcrouching": 6534,
      "wikspell": 6535,
      "Ġcrouched": 6536,
      "riphook": 6537,
      "ĠTuesday": 6538,
      "ohnson": 6539,
      "!'": 6540,
      "'.": 6541,
      ",,": 6542,
      "10": 6543,
      "13": 6544,
      "BER": 6545,
      "Dr": 6546,
      "Draco": 6547,
      "Fin": 6548,
      "IST": 6549,
      "Indeed": 6550,
      "KE": 6551,
      "Ludo": 6552,
      "Lavender": 6553,
      "Lucius": 6554,
      "Mer": 6555,
      "None": 6556,
      "OY": 6557,
      "People": 6558,
      "Sit": 6559,
      "Trelawney": 6560,
      "UD": 6561,
      "Will": 6562,
      "Want": 6563,
      "boy": 6564,
      "dro": 6565,
      "dire": 6566,
      "dormit": 6567,
      "eer": 6568,
      "find": 6569,
      "full": 6570,
      "found": 6571,
      "fact": 6572,
      "gus": 6573,
      "hall": 6574,
      "hard": 6575,
      "hound": 6576,
      "iber": 6577,
      "lad": 6578,
      "land": 6579,
      "later": 6580,
      "mar": 6581,
      "make": 6582,
      "match": 6583,
      "nes": 6584,
      "near": 6585,
      "por": 6586,
      "rakes": 6587,
      "sat": 6588,
      "sol": 6589,
      "six": 6590,
      "ught": 6591,
      "ueling": 6592,
      "hear": 6593,
      "inct": 6594,
      "Ġsou": 6595,
      "Ġsiz": 6596,
      "Ġsarc": 6597,
      "Ġwine": 6598,
      "Ġwrest": 6599,
      "ednes": 6600,
      "ero": 6601,
      "Ġhook": 6602,
      "Ġhushed": 6603,
      "Ġhouses": 6604,
      "arhound": 6605,
      "Ġben": 6606,
      "Ġbarn": 6607,
      "Ġbrick": 6608,
      "rec": 6609,
      "Ġfed": 6610,
      "Ġfish": 6611,
      "asm": 6612,
      "ĠHE": 6613,
      "ĠHere": 6614,
      "ĠHouses": 6615,
      "Ġcong": 6616,
      "Ġcost": 6617,
      "enough": 6618,
      "Ġduel": 6619,
      "Ġheap": 6620,
      "Ġmain": 6621,
      "Ġmant": 6622,
      "Ġmold": 6623,
      "Ġmixt": 6624,
      "Ġthrust": 6625,
      "Ġlid": 6626,
      "Ġloy": 6627,
      "Ġlace": 6628,
      "Ġlaun": 6629,
      "Ġpit": 6630,
      "Ġpus": 6631,
      "Ġprow": 6632,
      "Ġgar": 6633,
      "Ġgown": 6634,
      "Ġgilly": 6635,
      "anna": 6636,
      "Ġinj": 6637,
      "Ġsacked": 6638,
      "Ġbend": 6639,
      "oted": 6640,
      "Ġevent": 6641,
      "Ġstall": 6642,
      "ste": 6643,
      "veying": 6644,
      "etr": 6645,
      "ĠMason": 6646,
      "ĠMemory": 6647,
      "seen": 6648,
      "enth": 6649,
      "agn": 6650,
      "robes": 6651,
      "urd": 6652,
      "ams": 6653,
      "ĠSide": 6654,
      "ĠRed": 6655,
      "Ġforbidden": 6656,
      "ards": 6657,
      "illicent": 6658,
      "Ġshield": 6659,
      "Ġragged": 6660,
      "together": 6661,
      "Ġoutline": 6662,
      "ledge": 6663,
      "ĠCap": 6664,
      "Ġdoin": 6665,
      "usually": 6666,
      "ics": 6667,
      "ĠFour": 6668,
      "ĠFirst": 6669,
      "ĠFigg": 6670,
      "gend": 6671,
      "Ġmeas": 6672,
      "across": 6673,
      "Ġjolt": 6674,
      "Ġjudging": 6675,
      "Ġweigh": 6676,
      "Ġclambered": 6677,
      "que": 6678,
      "Ġsob": 6679,
      "iform": 6680,
      "ĠLittle": 6681,
      "ĠTw": 6682,
      "Ġiss": 6683,
      "Ġvar": 6684,
      "Ġdownward": 6685,
      "Ġagree": 6686,
      "oomed": 6687,
      "ults": 6688,
      "Ġsport": 6689,
      "Ġspitting": 6690,
      "Ġchilly": 6691,
      "Ġchasing": 6692,
      "opened": 6693,
      "ĠWeird": 6694,
      "ĠWeek": 6695,
      "Ġflow": 6696,
      "Ġbloody": 6697,
      "estig": 6698,
      "Ġunbl": 6699,
      "Ġslug": 6700,
      "Ġsloping": 6701,
      "apot": 6702,
      "Ġplanning": 6703,
      "osal": 6704,
      "Ġtwitched": 6705,
      "rowing": 6706,
      "onds": 6707,
      "gging": 6708,
      "iddikulus": 6709,
      "ptly": 6710,
      "Ġteapot": 6711,
      "Ġtruly": 6712,
      "ĠON": 6713,
      "ĠOut": 6714,
      "ĠOctober": 6715,
      "Ġarrive": 6716,
      "Ġmanager": 6717,
      "ĠEach": 6718,
      "Ġgruff": 6719,
      "Ġgritted": 6720,
      "Ġhappens": 6721,
      "Ġhappiness": 6722,
      "ods": 6723,
      "Ġdislike": 6724,
      "Ġdissol": 6725,
      "import": 6726,
      "shaped": 6727,
      "few": 6728,
      "feel": 6729,
      "uggage": 6730,
      "ĠBlast": 6731,
      "ĠQuick": 6732,
      "Ġwailing": 6733,
      "Ġgoodness": 6734,
      "Ġremains": 6735,
      "ishment": 6736,
      "Nobody": 6737,
      "ampion": 6738,
      "cloak": 6739,
      "Ġwinding": 6740,
      "armed": 6741,
      "Ġdaylight": 6742,
      "Ġattached": 6743,
      "Ġdesp": 6744,
      "Ġcrammed": 6745,
      "Ġfinds": 6746,
      "Ġhairs": 6747,
      "Ġprison": 6748,
      "ĠJune": 6749,
      "ĠJohnson": 6750,
      "Ġuntidy": 6751,
      "Ġmagically": 6752,
      "Ġperf": 6753,
      "urious": 6754,
      "uriously": 6755,
      "tele": 6756,
      "team": 6757,
      "Ġexciting": 6758,
      "Ġcurtly": 6759,
      "ĠThough": 6760,
      "Thought": 6761,
      "soever": 6762,
      "Ġpainfully": 6763,
      "Ġvisited": 6764,
      "ĠBeater": 6765,
      "Ġdecent": 6766,
      "HAR": 6767,
      "Ġlowering": 6768,
      "intment": 6769,
      "Ġawful": 6770,
      "Ġtrip": 6771,
      "gotten": 6772,
      "pletely": 6773,
      "Ġrepair": 6774,
      "Stan": 6775,
      "exc": 6776,
      "Ġdrawer": 6777,
      "Ġcounting": 6778,
      "Ġcounted": 6779,
      "Ġdelicious": 6780,
      "understand": 6781,
      "Ġexamine": 6782,
      "both": 6783,
      "Ġsprinting": 6784,
      "ĠUse": 6785,
      "Ġapproaching": 6786,
      "Ġwitness": 6787,
      "Ġfreck": 6788,
      "Ġcolored": 6789,
      "ANT": 6790,
      "Ġtaller": 6791,
      "Ġshops": 6792,
      "Ġgripping": 6793,
      "Ġblankets": 6794,
      "Ġannounced": 6795,
      "Ġpolitely": 6796,
      "atural": 6797,
      "Ġfrowned": 6798,
      "Ġpretended": 6799,
      "Ġregret": 6800,
      "Ġadvanced": 6801,
      "Ġcheerfully": 6802,
      "Ġreluct": 6803,
      "Ġjerking": 6804,
      "Ġsleek": 6805,
      "Ġurged": 6806,
      "Ġspirits": 6807,
      "Ġreaching": 6808,
      "Ġordered": 6809,
      "belie": 6810,
      "Ġattempted": 6811,
      "Ġattempting": 6812,
      "known": 6813,
      "points": 6814,
      "Ġflickering": 6815,
      "Ġbrandishing": 6816,
      "Anyway": 6817,
      "Ġsensation": 6818,
      "Ġdreadful": 6819,
      "mistress": 6820,
      "ĠFinch": 6821,
      "Ġsweaty": 6822,
      "works": 6823,
      "Ġladder": 6824,
      "ĠTHIRT": 6825,
      "Ġseventh": 6826,
      "Ġreveal": 6827,
      "Ġappreci": 6828,
      "Ġsatisfied": 6829,
      "Ġscreech": 6830,
      "rongs": 6831,
      "Ġdemon": 6832,
      "Ġdrowned": 6833,
      "Ġfilthy": 6834,
      "Ġdrifted": 6835,
      "Ġpunishment": 6836,
      "Ġembarrassed": 6837,
      "between": 6838,
      "cisely": 6839,
      "Ġdamage": 6840,
      "Ġphotographs": 6841,
      "Ġviolently": 6842,
      "Ġfortune": 6843,
      "Ġgrindylows": 6844,
      "coat": 6845,
      "Ġsource": 6846,
      "Ġbigger": 6847,
      "Ġgrateful": 6848,
      "Ġpleasantly": 6849,
      "Ġdisturbed": 6850,
      "ratul": 6851,
      "empty": 6852,
      "ĠAnimagus": 6853,
      "Ġfalse": 6854,
      "Remember": 6855,
      "Ġsubstance": 6856,
      "Ġbanner": 6857,
      "Ġgargoyle": 6858,
      "stopped": 6859,
      "Ġreckons": 6860,
      "ĠOffice": 6861,
      "Ġcontrary": 6862,
      "Ġsituation": 6863,
      "Ġpincers": 6864,
      "Ġpupils": 6865,
      "ĠSickles": 6866,
      "ĠSneakoscope": 6867,
      "Ġreleased": 6868,
      "ednesday": 6869,
      "annah": 6870,
      "ĠWeekly": 6871,
      "'.\"": 6872,
      "18": 6873,
      "20": 6874,
      "?'": 6875,
      "Both": 6876,
      "Bye": 6877,
      "CE": 6878,
      "Fe": 6879,
      "Four": 6880,
      "FOR": 6881,
      "Frank": 6882,
      "Hufflepuff": 6883,
      "Hurry": 6884,
      "LY": 6885,
      "Love": 6886,
      "Molly": 6887,
      "Nice": 6888,
      "RA": 6889,
      "RI": 6890,
      "Ravenclaw": 6891,
      "Riddikulus": 6892,
      "Sn": 6893,
      "Turn": 6894,
      "Was": 6895,
      "bell": 6896,
      "bath": 6897,
      "beneath": 6898,
      "cre": 6899,
      "cus": 6900,
      "cast": 6901,
      "corn": 6902,
      "care": 6903,
      "cles": 6904,
      "dis": 6905,
      "diff": 6906,
      "ees": 6907,
      "each": 6908,
      "eks": 6909,
      "five": 6910,
      "fixed": 6911,
      "fogging": 6912,
      "gul": 6913,
      "has": 6914,
      "ives": 6915,
      "iarm": 6916,
      "ians": 6917,
      "kind": 6918,
      "lor": 6919,
      "mill": 6920,
      "name": 6921,
      "nearly": 6922,
      "pat": 6923,
      "pen": 6924,
      "phere": 6925,
      "rack": 6926,
      "rain": 6927,
      "sed": 6928,
      "sight": 6929,
      "sers": 6930,
      "saw": 6931,
      "suddenly": 6932,
      "took": 6933,
      "tra": 6934,
      "times": 6935,
      "upe": 6936,
      "ube": 6937,
      "vy": 6938,
      "wr": 6939,
      "watched": 6940,
      "world": 6941,
      "Ġ4": 6942,
      "Ġ=": 6943,
      "Ġourselves": 6944,
      "Ġaid": 6945,
      "Ġawo": 6946,
      "Ġacted": 6947,
      "Ġsid": 6948,
      "Ġwar": 6949,
      "Ġwre": 6950,
      "Ġwri": 6951,
      "Ġwound": 6952,
      "Ġwisp": 6953,
      "Ġtheory": 6954,
      "erable": 6955,
      "Ġhy": 6956,
      "Ġhumm": 6957,
      "onto": 6958,
      "onze": 6959,
      "Ġbun": 6960,
      "Ġbone": 6961,
      "Ġbunch": 6962,
      "Ġbattered": 6963,
      "Ġbinding": 6964,
      "Ġbobbing": 6965,
      "resc": 6966,
      "Ġfail": 6967,
      "Ġferv": 6968,
      "Ġfirs": 6969,
      "Ġfashion": 6970,
      "Ġfetch": 6971,
      "ator": 6972,
      "asons": 6973,
      "ĠHA": 6974,
      "ĠHas": 6975,
      "ĠHang": 6976,
      "ĠHalf": 6977,
      "Ġcul": 6978,
      "orse": 6979,
      "Ġduty": 6980,
      "Ġheat": 6981,
      "Ġment": 6982,
      "Ġmater": 6983,
      "Ġmotor": 6984,
      "Ġlion": 6985,
      "Ġlack": 6986,
      "Ġlun": 6987,
      "Ġlady": 6988,
      "Ġpride": 6989,
      "adies": 6990,
      "Ġgate": 6991,
      "Ġgaped": 6992,
      "Ġgazed": 6993,
      "Ġgift": 6994,
      "anwhile": 6995,
      "Ġinf": 6996,
      "Ġsaving": 6997,
      "oooo": 6998,
      "Ġnonsense": 6999,
      "Ġwaste": 7000,
      "omp": 7001,
      "omen": 7002,
      "Ġstore": 7003,
      "Ġstol": 7004,
      "Ġstage": 7005,
      "stances": 7006,
      "ett": 7007,
      "irlf": 7008,
      "irror": 7009,
      "ĠMolly": 7010,
      "agers": 7011,
      "alaz": 7012,
      "ĠSund": 7013,
      "ĠSupp": 7014,
      "ĠSurely": 7015,
      "Ġreappeared": 7016,
      "ĠPer": 7017,
      "ĠPen": 7018,
      "ĠPince": 7019,
      "ĠPlease": 7020,
      "ĠDav": 7021,
      "ĠDON": 7022,
      "Ġantic": 7023,
      "Ġsees": 7024,
      "acking": 7025,
      "ums": 7026,
      "umes": 7027,
      "umos": 7028,
      "umstances": 7029,
      "Ġshred": 7030,
      "Ġshrive": 7031,
      "Ġupside": 7032,
      "Ġruffled": 7033,
      "ĠWhee": 7034,
      "ĠWILL": 7035,
      "ĠCle": 7036,
      "ĠCann": 7037,
      "ĠBas": 7038,
      "ĠBell": 7039,
      "akin": 7040,
      "akily": 7041,
      "ements": 7042,
      "iciously": 7043,
      "Ġgovern": 7044,
      "Ġknuck": 7045,
      "Ġlivid": 7046,
      "Ġjaws": 7047,
      "Ġclaws": 7048,
      "Ġsofa": 7049,
      "inkled": 7050,
      "Ġaback": 7051,
      "Ġaband": 7052,
      "Ġwheel": 7053,
      "ĠTr": 7054,
      "Ġnoble": 7055,
      "izzing": 7056,
      "uls": 7057,
      "Ġsple": 7058,
      "Ġspilling": 7059,
      "Ġcharge": 7060,
      "Ġchances": 7061,
      "Ġchoose": 7062,
      "arking": 7063,
      "Ġque": 7064,
      "anges": 7065,
      "Ġflipped": 7066,
      "Ġblushing": 7067,
      "Ġblocking": 7068,
      "ests": 7069,
      "Ġyourselves": 7070,
      "thinking": 7071,
      "Ġhandbag": 7072,
      "Ġunn": 7073,
      "Ġslipp": 7074,
      "Ġplump": 7075,
      "Ġplants": 7076,
      "tedly": 7077,
      "Ġconfess": 7078,
      "Ġroast": 7079,
      "Ġrobe": 7080,
      "Ġcomb": 7081,
      "Ġwandered": 7082,
      "vingly": 7083,
      "avement": 7084,
      "Ġglit": 7085,
      "Ġglow": 7086,
      "Ġglared": 7087,
      "Ġglowing": 7088,
      "Ġorph": 7089,
      "Ġbronze": 7090,
      "things": 7091,
      "Ġswear": 7092,
      "Ġswive": 7093,
      "Ġswelled": 7094,
      "Ġotherwise": 7095,
      "Ġpecul": 7096,
      "Quick": 7097,
      "Ġdiv": 7098,
      "Ġdismiss": 7099,
      "sharp": 7100,
      "ĠBloody": 7101,
      "ĠBlotts": 7102,
      "Ġwailed": 7103,
      "Ġremark": 7104,
      "Ġremote": 7105,
      "Ġdram": 7106,
      "Ġprec": 7107,
      "close": 7108,
      "Ġprogress": 7109,
      "Ġbiting": 7110,
      "plex": 7111,
      "ĠPetrified": 7112,
      "Ġattract": 7113,
      "Ġcrit": 7114,
      "Ġcrashed": 7115,
      "isposal": 7116,
      "anshee": 7117,
      "Ġskidded": 7118,
      "Ġamb": 7119,
      "Ġamused": 7120,
      "Ġcarved": 7121,
      "Ġblackboard": 7122,
      "Ġcontaining": 7123,
      "Ġfloors": 7124,
      "Ġsnout": 7125,
      "Ġearshot": 7126,
      "Ġearlier": 7127,
      "Ġsurveying": 7128,
      "Ġlightly": 7129,
      "ĠStunned": 7130,
      "lipped": 7131,
      "ĠInside": 7132,
      "Ġperched": 7133,
      "Ġrabb": 7134,
      "Ġeyeing": 7135,
      "Ġsnapping": 7136,
      "Ġrealizing": 7137,
      "ĠFloo": 7138,
      "ĠFlavor": 7139,
      "ĠFlourish": 7140,
      "Ġboss": 7141,
      "Ġcareer": 7142,
      "Ġcurl": 7143,
      "Ġcurtain": 7144,
      "Ġuseless": 7145,
      "brush": 7146,
      "Think": 7147,
      "Ġgreenhouse": 7148,
      "Ġexplos": 7149,
      "immed": 7150,
      "Ġcorners": 7151,
      "Ġsigns": 7152,
      "Ġrip": 7153,
      "Ġrigh": 7154,
      "Ġripp": 7155,
      "Ġhatred": 7156,
      "ĠBeans": 7157,
      "Ġdecision": 7158,
      "Ġmarching": 7159,
      "Ġbushes": 7160,
      "Ġhearth": 7161,
      "Ġhopelessly": 7162,
      "cio": 7163,
      "Ġedges": 7164,
      "Ġmonsters": 7165,
      "ĠHowler": 7166,
      "Angelina": 7167,
      "Ġarriving": 7168,
      "INDOR": 7169,
      "Ġfreezing": 7170,
      "Ġmetal": 7171,
      "rieking": 7172,
      "Ġdirectly": 7173,
      "Ġload": 7174,
      "expected": 7175,
      "Ġrefere": 7176,
      "Ġinsult": 7177,
      "handed": 7178,
      "Ġtravel": 7179,
      "Ġtraveled": 7180,
      "Ġcrossing": 7181,
      "Ġsummat": 7182,
      "Expell": 7183,
      "Excuse": 7184,
      "Ġsneer": 7185,
      "Ġwidely": 7186,
      "amming": 7187,
      "Ġwinged": 7188,
      "Ġdetails": 7189,
      "Ġscratching": 7190,
      "particularly": 7191,
      "ARD": 7192,
      "Should": 7193,
      "Ġ..\"": 7194,
      "Ġwindowsill": 7195,
      "Ġdoubled": 7196,
      "Ġdoubted": 7197,
      "Ġactiv": 7198,
      "Ġtowering": 7199,
      "Ġassured": 7200,
      "Ġdeserved": 7201,
      "Ġtorches": 7202,
      "Ġcrackling": 7203,
      "Ġconfusion": 7204,
      "Ġlearning": 7205,
      "glittering": 7206,
      "Ġcaused": 7207,
      "Ġshriek": 7208,
      "Ġrooster": 7209,
      "parchment": 7210,
      "Ġaddress": 7211,
      "aggy": 7212,
      "REE": 7213,
      "Ġpunct": 7214,
      "Ġelect": 7215,
      "Ġrolls": 7216,
      "Ġregister": 7217,
      "Ġprotruding": 7218,
      "striped": 7219,
      "Ġwhistling": 7220,
      "Ġhumans": 7221,
      "Ġtrembled": 7222,
      "Ġphotos": 7223,
      "Ġoccup": 7224,
      "Ġdisgu": 7225,
      "present": 7226,
      "mosphere": 7227,
      "Ġlimped": 7228,
      "Ġpositively": 7229,
      "Ġspreading": 7230,
      "Ġimpressive": 7231,
      "Ġbangs": 7232,
      "Ġargue": 7233,
      "Petunia": 7234,
      "Ġbeaten": 7235,
      "Ġstormed": 7236,
      "RYFF": 7237,
      "minute": 7238,
      "minutes": 7239,
      "Ġadmitted": 7240,
      "doing": 7241,
      "happy": 7242,
      "Ġgiggled": 7243,
      "working": 7244,
      "ĠChaser": 7245,
      "Ġpenetr": 7246,
      "Ġsmirked": 7247,
      "Several": 7248,
      "Ġpoisonous": 7249,
      "Ġsuffered": 7250,
      "Ġscreeched": 7251,
      "borns": 7252,
      "Ġwidened": 7253,
      "ĠApparate": 7254,
      "Ġgnomes": 7255,
      "Ġutterly": 7256,
      "ĠConf": 7257,
      "Ġurgent": 7258,
      "Ġcasually": 7259,
      "Ġincredulously": 7260,
      "fourth": 7261,
      "Ġswaying": 7262,
      "Ġstreaming": 7263,
      "Ġstretch": 7264,
      "Ġsniggering": 7265,
      "Ġsurvive": 7266,
      "Ġsurvived": 7267,
      "elpiece": 7268,
      "Ġdecorations": 7269,
      "Ġrequire": 7270,
      "Ġnoses": 7271,
      "Ġdefiantly": 7272,
      "Ġenthusiastically": 7273,
      "supposed": 7274,
      "Ġanti": 7275,
      "Ġuncomfortable": 7276,
      "Ġdeafening": 7277,
      "ĠDisapparated": 7278,
      "ĠSnapes": 7279,
      "olutely": 7280,
      "Ġrespons": 7281,
      "Ġleprechauns": 7282,
      "Imagine": 7283,
      "breath": 7284,
      "whether": 7285,
      "Ġfascinating": 7286,
      "Ġscribbled": 7287,
      "Ġconstantly": 7288,
      "Ġlanterns": 7289,
      "Ġsausages": 7290,
      "Ġtwigs": 7291,
      "Ġboots": 7292,
      "Ġsandw": 7293,
      "ĠSkrewts": 7294,
      "Ġrapidly": 7295,
      "Ġvigor": 7296,
      "Ġbuilding": 7297,
      "ĠRestricted": 7298,
      "Ġnightmare": 7299,
      "teachers": 7300,
      "Ġbundle": 7301,
      "Ġoccurred": 7302,
      "Ġargument": 7303,
      "Ġspectacular": 7304,
      "Ġpixies": 7305,
      "Ġeerie": 7306,
      "Ġstammered": 7307,
      "Ġmantelpiece": 7308,
      "Ġmixture": 7309,
      "Ġgillyweed": 7310,
      "Ġgruffly": 7311,
      "iarmus": 7312,
      "Ġawoken": 7313,
      "Ġstolen": 7314,
      "irlfriend": 7315,
      "alazar": 7316,
      "ĠDavies": 7317,
      "Ġpeculiar": 7318,
      "Expelliarmus": 7319,
      "RYFFINDOR": 7320,
      "'\"": 7321,
      "'?\"": 7322,
      "15": 7323,
      "19": 7324,
      "29": 7325,
      "30": 7326,
      "Azkaban": 7327,
      "Bill": 7328,
      "Care": 7329,
      "Eat": 7330,
      "Gilderoy": 7331,
      "Ha": 7332,
      "HER": 7333,
      "Haven": 7334,
      "Lumos": 7335,
      "Mac": 7336,
      "OL": 7337,
      "Our": 7338,
      "Pomfrey": 7339,
      "Probably": 7340,
      "TS": 7341,
      "TEEN": 7342,
      "UN": 7343,
      "UP": 7344,
      "US": 7345,
      "Wow": 7346,
      "Wizard": 7347,
      "Wish": 7348,
      "XP": 7349,
      "aim": 7350,
      "aves": 7351,
      "bro": 7352,
      "band": 7353,
      "bright": 7354,
      "best": 7355,
      "broom": 7356,
      "broomstick": 7357,
      "cri": 7358,
      "cod": 7359,
      "coun": 7360,
      "den": 7361,
      "does": 7362,
      "gen": 7363,
      "hospital": 7364,
      "iving": 7365,
      "loud": 7366,
      "making": 7367,
      "much": 7368,
      "morning": 7369,
      "ny": 7370,
      "nut": 7371,
      "norm": 7372,
      "pir": 7373,
      "pher": 7374,
      "pain": 7375,
      "pered": 7376,
      "spl": 7377,
      "sub": 7378,
      "tri": 7379,
      "tur": 7380,
      "uable": 7381,
      "vad": 7382,
      "vable": 7383,
      "viously": 7384,
      "wanted": 7385,
      "Ġim": 7386,
      "Ġtim": 7387,
      "Ġtut": 7388,
      "Ġtaps": 7389,
      "Ġtapping": 7390,
      "Ġtugging": 7391,
      "help": 7392,
      "Ġah": 7393,
      "ini": 7394,
      "inal": 7395,
      "inched": 7396,
      "Ġsing": 7397,
      "Ġsom": 7398,
      "Ġsul": 7399,
      "Ġwise": 7400,
      "edav": 7401,
      "Ġhugged": 7402,
      "Ġbill": 7403,
      "Ġbare": 7404,
      "Ġbrill": 7405,
      "Ġbolt": 7406,
      "resh": 7407,
      "Ġfled": 7408,
      "Ġfog": 7409,
      "Ġfake": 7410,
      "Ġfurs": 7411,
      "Ġfears": 7412,
      "Ġtoes": 7413,
      "ises": 7414,
      "ases": 7415,
      "ĠHannah": 7416,
      "Ġcous": 7417,
      "Ġcough": 7418,
      "Ġdot": 7419,
      "Ġdra": 7420,
      "Ġdate": 7421,
      "Ġduck": 7422,
      "Ġdaz": 7423,
      "Ġdrill": 7424,
      "Ġdwell": 7425,
      "Ġhem": 7426,
      "Ġheir": 7427,
      "Ġheel": 7428,
      "Ġheaving": 7429,
      "Ġmor": 7430,
      "Ġmainly": 7431,
      "Ġmatches": 7432,
      "Ġmouthed": 7433,
      "Ġling": 7434,
      "Ġlab": 7435,
      "Ġluggage": 7436,
      "Ġpaw": 7437,
      "Ġpatter": 7438,
      "Ġpearly": 7439,
      "Ġpaws": 7440,
      "Ġpelting": 7441,
      "Ġgaunt": 7442,
      "Ġgirlfriend": 7443,
      "Ġsauce": 7444,
      "ooper": 7445,
      "omy": 7446,
      "Ġeld": 7447,
      "Ġstarry": 7448,
      "Ġstumbled": 7449,
      "stair": 7450,
      "started": 7451,
      "strous": 7452,
      "veral": 7453,
      "chairs": 7454,
      "ĠMis": 7455,
      "ĠMull": 7456,
      "ĠMillicent": 7457,
      "send": 7458,
      "several": 7459,
      "entrance": 7460,
      "Ġwhirl": 7461,
      "ceiling": 7462,
      "agini": 7463,
      "Ġatmosphere": 7464,
      "Ġhabit": 7465,
      "already": 7466,
      "ĠSl": 7467,
      "ĠSpe": 7468,
      "ĠSalazar": 7469,
      "kelet": 7470,
      "ithing": 7471,
      "Ġreass": 7472,
      "Ġreli": 7473,
      "ĠProngs": 7474,
      "ĠDO": 7475,
      "ĠDay": 7476,
      "Ġsell": 7477,
      "Ġshoved": 7478,
      "Ġshuffling": 7479,
      "Ġshaggy": 7480,
      "Ġruff": 7481,
      "Ġrumm": 7482,
      "Ġringing": 7483,
      "Ġrushing": 7484,
      "Ġruddy": 7485,
      "ĠWednesday": 7486,
      "pelled": 7487,
      "ĠChe": 7488,
      "ĠCont": 7489,
      "unching": 7490,
      "Ġlemon": 7491,
      "Ġlegend": 7492,
      "ĠAN": 7493,
      "ĠBecause": 7494,
      "ellow": 7495,
      "iches": 7496,
      "ĠFrog": 7497,
      "Ġgoggling": 7498,
      "Ġnothin": 7499,
      "Ġjacket": 7500,
      "ĠGriphook": 7501,
      "Ġbacking": 7502,
      "Ġweb": 7503,
      "elope": 7504,
      "Ġclap": 7505,
      "Ġclatter": 7506,
      "Ġsocc": 7507,
      "oys": 7508,
      "Ġwhatsoever": 7509,
      "ousy": 7510,
      "ĠLI": 7511,
      "ĠLev": 7512,
      "ĠTen": 7513,
      "ĠTime": 7514,
      "ĠTroy": 7515,
      "rap": 7516,
      "istening": 7517,
      "augh": 7518,
      "Ġagony": 7519,
      "Ġoffic": 7520,
      "Ġalert": 7521,
      "Ġfeat": 7522,
      "ulted": 7523,
      "Ġspo": 7524,
      "Ġspilled": 7525,
      "Ġchim": 7526,
      "Ġchart": 7527,
      "opes": 7528,
      "angle": 7529,
      "olding": 7530,
      "Ġflown": 7531,
      "Ġflame": 7532,
      "Ġflicked": 7533,
      "Ġfluffy": 7534,
      "Ġblown": 7535,
      "Ġblowing": 7536,
      "Ġblunder": 7537,
      "Ġuniform": 7538,
      "Ġslope": 7539,
      "Ġslouched": 7540,
      "apse": 7541,
      "Ġdeb": 7542,
      "Ġdevel": 7543,
      "Ġplain": 7544,
      "Ġplanted": 7545,
      "Ġscaly": 7546,
      "Ġroset": 7547,
      "Ġsmugg": 7548,
      "Ġglory": 7549,
      "Ġtrack": 7550,
      "Ġtragic": 7551,
      "Ġener": 7552,
      "Ġswinging": 7553,
      "Ġgrad": 7554,
      "udding": 7555,
      "ĠKedav": 7556,
      "oday": 7557,
      "Ġdish": 7558,
      "Ġundertone": 7559,
      "shirt": 7560,
      "shouted": 7561,
      "feather": 7562,
      "rewd": 7563,
      "Ġremove": 7564,
      "ords": 7565,
      "dden": 7566,
      "Ġtalent": 7567,
      "Ġstray": 7568,
      "Ġstraining": 7569,
      "atedly": 7570,
      "arms": 7571,
      "Ġwrithing": 7572,
      "Ġcruel": 7573,
      "Ġskinny": 7574,
      "getable": 7575,
      "Ġcleaning": 7576,
      "Ġcasting": 7577,
      "Ġquivered": 7578,
      "Ġowner": 7579,
      "Ġhovering": 7580,
      "Ġsurvey": 7581,
      "Ġsquid": 7582,
      "Ġbegin": 7583,
      "offee": 7584,
      "tense": 7585,
      "abbing": 7586,
      "Ġbread": 7587,
      "Ġlots": 7588,
      "Ġboiling": 7589,
      "Ġparticul": 7590,
      "Ġbuilt": 7591,
      "However": 7592,
      "Ġtreacle": 7593,
      "Ġcurren": 7594,
      "why": 7595,
      "ĠArgus": 7596,
      "bruary": 7597,
      "ronomy": 7598,
      "Ġreturning": 7599,
      "Ġrub": 7600,
      "Through": 7601,
      "Ġfeelings": 7602,
      "Ġgreenhouses": 7603,
      "Ġexplan": 7604,
      "Ġcornered": 7605,
      "Ġideas": 7606,
      "Ġrich": 7607,
      "ĠWhile": 7608,
      "Ġhats": 7609,
      "Ġtrousers": 7610,
      "atives": 7611,
      "ension": 7612,
      "Ġmaroon": 7613,
      "Ġresent": 7614,
      "Ġawoke": 7615,
      "Ġsurprising": 7616,
      "Ġsleepily": 7617,
      "INKS": 7618,
      "Ġcontinue": 7619,
      "Ġcontinuing": 7620,
      "Ġdogs": 7621,
      "Ġsqueaking": 7622,
      "Ġflex": 7623,
      "Ġdirections": 7624,
      "wizards": 7625,
      "Blimey": 7626,
      "exactly": 7627,
      "Ġinsane": 7628,
      "ĠClunk": 7629,
      "Ġtrapped": 7630,
      "Ġcrossbow": 7631,
      "Ġnecks": 7632,
      "ĠEverything": 7633,
      "pitched": 7634,
      "Ġformed": 7635,
      "Ġsubd": 7636,
      "bottle": 7637,
      "Ġspring": 7638,
      "Ġcollecting": 7639,
      "Ġscratched": 7640,
      "ĠUp": 7641,
      "Ġghostly": 7642,
      "hetic": 7643,
      "Ġmeantime": 7644,
      "Ġdreams": 7645,
      "Ġcozy": 7646,
      "Ġevents": 7647,
      "Ġfrighten": 7648,
      "Ġnarrowly": 7649,
      "ĠShould": 7650,
      "ĠShack": 7651,
      "Ġterms": 7652,
      "Ġaddressed": 7653,
      "Christmas": 7654,
      "Ġimagining": 7655,
      "Ġstaffroom": 7656,
      "ĠPatrick": 7657,
      "Ġplanets": 7658,
      "Ġjerk": 7659,
      "Ġpromised": 7660,
      "Ġpromptly": 7661,
      "Ġurge": 7662,
      "Ġlifting": 7663,
      "Ġcircumstances": 7664,
      "Ġdriving": 7665,
      "everything": 7666,
      "Ġwarmth": 7667,
      "Ġbothering": 7668,
      "against": 7669,
      "Ġsuspicion": 7670,
      "ĠBulgaria": 7671,
      "ĠBulgarians": 7672,
      "Ġmerrily": 7673,
      "ĠWithout": 7674,
      "Ġcarriages": 7675,
      "Ġretrie": 7676,
      "Ġyellowish": 7677,
      "Ġbounded": 7678,
      "Ġprepare": 7679,
      "Ġhoops": 7680,
      "Ġcomplicated": 7681,
      "Ġirritated": 7682,
      "proper": 7683,
      "Ġbrandy": 7684,
      "Ġhonestly": 7685,
      "Ġsnowy": 7686,
      "Ġsomethin": 7687,
      "Anyone": 7688,
      "Ġalarmed": 7689,
      "Ġthundering": 7690,
      "Ġlawns": 7691,
      "Ġboarded": 7692,
      "Ġpersuaded": 7693,
      "Ġguessed": 7694,
      "Ġfairly": 7695,
      "Ġgreasy": 7696,
      "Ġticket": 7697,
      "Ġmurderer": 7698,
      "uminous": 7699,
      "Ġabsence": 7700,
      "Ġpenalty": 7701,
      "Ġshuddered": 7702,
      "Ġsatisfaction": 7703,
      "Ġevidently": 7704,
      "Ġtensely": 7705,
      "Ġstiffly": 7706,
      "Ġinvestig": 7707,
      "Ġlumpy": 7708,
      "Ġgnome": 7709,
      "Ġscowled": 7710,
      "Ġscowling": 7711,
      "Ġbustled": 7712,
      "Ġbooming": 7713,
      "Ġyawning": 7714,
      "ĠPadfoot": 7715,
      "Ġsniggered": 7716,
      "Ġsixty": 7717,
      "Ġsixteen": 7718,
      "Ġseparate": 7719,
      "ĠWitchcraft": 7720,
      "Better": 7721,
      "Ġtankard": 7722,
      "Ġhostages": 7723,
      "Ġcomfortable": 7724,
      "Ġastonished": 7725,
      "hole": 7726,
      "ĠSTINKS": 7727,
      "Ġuncomfortably": 7728,
      "Ġautograph": 7729,
      "Ġgentlemen": 7730,
      "tinguished": 7731,
      "ĠStandard": 7732,
      "Ġobsessed": 7733,
      "Ġseverely": 7734,
      "Ġpotato": 7735,
      "Ġpotatoes": 7736,
      "Ġgalloping": 7737,
      "ĠMandrakes": 7738,
      "ĠMudbloods": 7739,
      "Ġvacation": 7740,
      "Ġvictims": 7741,
      "Ġimmensely": 7742,
      "Ġtaste": 7743,
      "Ġniffler": 7744,
      "ethered": 7745,
      "Ġgrumpily": 7746,
      "Ġassistant": 7747,
      "Ġfreedom": 7748,
      "surpr": 7749,
      "Ġcrazy": 7750,
      "Ġheavens": 7751,
      "Ġgleefully": 7752,
      "Ġslithering": 7753,
      "horrible": 7754,
      "oubtedly": 7755,
      "Ġunfortunate": 7756,
      "Ġexecutioner": 7757,
      "corridor": 7758,
      "ĠZonko": 7759,
      "Ġidentical": 7760,
      "Ġdeny": 7761,
      "Ġinvented": 7762,
      "Ġvibrating": 7763,
      "Ġcollapsed": 7764,
      "Ġflattened": 7765,
      "revor": 7766,
      "Ġshamrock": 7767,
      "Ġeyelids": 7768,
      "dormitory": 7769,
      "Ġbenches": 7770,
      "Ġlaunched": 7771,
      "ĠCaptain": 7772,
      "Ġweighing": 7773,
      "ampionship": 7774,
      "Feeling": 7775,
      "millan": 7776,
      "upefy": 7777,
      "Ġ='": 7778,
      "Ġwreck": 7779,
      "Ġfervently": 7780,
      "Ġmaterial": 7781,
      "ĠSunday": 7782,
      "Ġknuckles": 7783,
      "Ġglittered": 7784,
      "Ġcritic": 7785,
      "Ġrabbit": 7786,
      "Ġvigorously": 7787,
      "vada": 7788,
      "Ġcousin": 7789,
      "ooperation": 7790,
      "staircase": 7791,
      "ĠMullet": 7792,
      "Ġsoccer": 7793,
      "ĠKedavra": 7794,
      "Ġparticular": 7795,
      "-'": 7796,
      "17": 7797,
      "Bad": 7798,
      "Back": 7799,
      "Con": 7800,
      "Cle": 7801,
      "Com": 7802,
      "Couldn": 7803,
      "Gl": 7804,
      "Goyle": 7805,
      "GRYFFINDOR": 7806,
      "Had": 7807,
      "Hmm": 7808,
      "IX": 7809,
      "IZ": 7810,
      "Id": 7811,
      "Lo": 7812,
      "Longbottom": 7813,
      "NO": 7814,
      "NOW": 7815,
      "OP": 7816,
      "Ow": 7817,
      "Over": 7818,
      "Per": 7819,
      "Pass": 7820,
      "Sm": 7821,
      "Spe": 7822,
      "TO": 7823,
      "VER": 7824,
      "Yer": 7825,
      "abe": 7826,
      "aiting": 7827,
      "bal": 7828,
      "bounds": 7829,
      "cage": 7830,
      "course": 7831,
      "ccio": 7832,
      "det": 7833,
      "dream": 7834,
      "dangerous": 7835,
      "eled": 7836,
      "fell": 7837,
      "finger": 7838,
      "gri": 7839,
      "gap": 7840,
      "girl": 7841,
      "hot": 7842,
      "home": 7843,
      "hour": 7844,
      "iature": 7845,
      "lted": 7846,
      "life": 7847,
      "move": 7848,
      "mouthed": 7849,
      "moving": 7850,
      "ned": 7851,
      "overy": 7852,
      "ointed": 7853,
      "pack": 7854,
      "power": 7855,
      "rud": 7856,
      "sign": 7857,
      "skin": 7858,
      "sounded": 7859,
      "tion": 7860,
      "til": 7861,
      "tried": 7862,
      "tory": 7863,
      "taken": 7864,
      "trans": 7865,
      "uf": 7866,
      "wed": 7867,
      "worm": 7868,
      "whis": 7869,
      "worth": 7870,
      "Ġimit": 7871,
      "Ġty": 7872,
      "Ġtar": 7873,
      "Ġtying": 7874,
      "hearted": 7875,
      "Ġax": 7876,
      "inch": 7877,
      "Ġsad": 7878,
      "Ġsons": 7879,
      "Ġwaking": 7880,
      "Ġwider": 7881,
      "Ġwipe": 7882,
      "erve": 7883,
      "eration": 7884,
      "eriously": 7885,
      "Ġhind": 7886,
      "Ġhip": 7887,
      "arre": 7888,
      "arling": 7889,
      "arian": 7890,
      "onna": 7891,
      "ndid": 7892,
      "Ġbared": 7893,
      "Ġbully": 7894,
      "Ġbomb": 7895,
      "Ġbasket": 7896,
      "ref": 7897,
      "resent": 7898,
      "Ġfant": 7899,
      "Ġfav": 7900,
      "Ġfudge": 7901,
      "Ġfeared": 7902,
      "Ġtoe": 7903,
      "athed": 7904,
      "atted": 7905,
      "asions": 7906,
      "iter": 7907,
      "ites": 7908,
      "itions": 7909,
      "itated": 7910,
      "ĠHER": 7911,
      "Ġcoward": 7912,
      "idge": 7913,
      "idence": 7914,
      "enced": 7915,
      "learn": 7916,
      "Ġdung": 7917,
      "Ġdense": 7918,
      "Ġdash": 7919,
      "Ġdraft": 7920,
      "Ġhearts": 7921,
      "Ġmut": 7922,
      "Ġmort": 7923,
      "Ġmop": 7924,
      "Ġmarked": 7925,
      "Ġmale": 7926,
      "Ġmasks": 7927,
      "Ġmedd": 7928,
      "Ġthundered": 7929,
      "Ġlimb": 7930,
      "Ġlunged": 7931,
      "Ġluminous": 7932,
      "Ġlabe": 7933,
      "Ġpel": 7934,
      "Ġpaced": 7935,
      "Ġpiled": 7936,
      "Ġpati": 7937,
      "Ġgames": 7938,
      "anage": 7939,
      "Ġsake": 7940,
      "ooted": 7941,
      "Ġnurse": 7942,
      "Ġnational": 7943,
      "Ġnature": 7944,
      "Ġwash": 7945,
      "Ġyel": 7946,
      "Ġbee": 7947,
      "Ġbelt": 7948,
      "Ġbehave": 7949,
      "cking": 7950,
      "ombs": 7951,
      "Ġhistory": 7952,
      "Ġstories": 7953,
      "Ġstamped": 7954,
      "stop": 7955,
      "staring": 7956,
      "ĠIndeed": 7957,
      "irc": 7958,
      "change": 7959,
      "ĠMany": 7960,
      "ential": 7961,
      "ionally": 7962,
      "agons": 7963,
      "rived": 7964,
      "Ġham": 7965,
      "Ġhaunted": 7966,
      "rov": 7967,
      "alone": 7968,
      "always": 7969,
      "alified": 7970,
      "These": 7971,
      "urg": 7972,
      "amble": 7973,
      "ĠSE": 7974,
      "ĠSlowly": 7975,
      "Ġreward": 7976,
      "ĠPe": 7977,
      "ĠPAT": 7978,
      "ĠDr": 7979,
      "ĠDAR": 7980,
      "ĠDoes": 7981,
      "Ġseated": 7982,
      "ppled": 7983,
      "ills": 7984,
      "umble": 7985,
      "Ġshade": 7986,
      "Ġshaw": 7987,
      "Ġshoot": 7988,
      "Ġshrank": 7989,
      "Ġshakily": 7990,
      "Ġrout": 7991,
      "Ġride": 7992,
      "Ġracket": 7993,
      "Ġlookin": 7994,
      "ĠWill": 7995,
      "ĠWAS": 7996,
      "pefr": 7997,
      "Ġfruit": 7998,
      "ĠCurs": 7999,
      "ĠCooperation": 8000,
      "unts": 8001,
      "ĠAd": 8002,
      "ĠAge": 8003,
      "Ġnecess": 8004,
      "ĠBr": 8005,
      "ĠBall": 8006,
      "ĠBest": 8007,
      "elle": 8008,
      "ilib": 8009,
      "embr": 8010,
      "ĠFuture": 8011,
      "Ġgoble": 8012,
      "asted": 8013,
      "Ġlift": 8014,
      "hings": 8015,
      "acc": 8016,
      "antage": 8017,
      "ĠGold": 8018,
      "essions": 8019,
      "Ġclump": 8020,
      "Ġclawed": 8021,
      "quest": 8022,
      "Ġsold": 8023,
      "Ġshelf": 8024,
      "Ġabsent": 8025,
      "icky": 8026,
      "ifty": 8027,
      "ĠLine": 8028,
      "Ġextinguished": 8029,
      "raight": 8030,
      "Ġvicious": 8031,
      "nap": 8032,
      "Ġalight": 8033,
      "izz": 8034,
      "izarre": 8035,
      "Ġpoke": 8036,
      "Ġfeeding": 8037,
      "bbing": 8038,
      "ulous": 8039,
      "Ġsprawled": 8040,
      "Ġchort": 8041,
      "Ġchunk": 8042,
      "Ġchained": 8043,
      "Ġknowledge": 8044,
      "urning": 8045,
      "ĠNO": 8046,
      "Ġgettin": 8047,
      "angements": 8048,
      "ĠDumbledores": 8049,
      "these": 8050,
      "Ġsugar": 8051,
      "Ġsucked": 8052,
      "Ġworn": 8053,
      "Ġflaming": 8054,
      "ĠProfessors": 8055,
      "Ġunknown": 8056,
      "Ġunexpected": 8057,
      "Ġslime": 8058,
      "Ġslowed": 8059,
      "Ġslapping": 8060,
      "Ġslamming": 8061,
      "Ġwhip": 8062,
      "Ġdefense": 8063,
      "Ġplotting": 8064,
      "osity": 8065,
      "Ġcance": 8066,
      "Ġcondu": 8067,
      "olted": 8068,
      "olution": 8069,
      "Ġsmug": 8070,
      "Ġhowl": 8071,
      "Its": 8072,
      "Ġwander": 8073,
      "Ġwandlight": 8074,
      "ggled": 8075,
      "Ġthroughout": 8076,
      "Ġglistening": 8077,
      "Ġbrist": 8078,
      "Ġbrushing": 8079,
      "ĠOur": 8080,
      "Ġarrest": 8081,
      "Ġswore": 8082,
      "Ġswishing": 8083,
      "Ġswarming": 8084,
      "Ġgrubby": 8085,
      "atherby": 8086,
      "Ġowing": 8087,
      "Ġdiet": 8088,
      "lesh": 8089,
      "Ġdishes": 8090,
      "Ġdisgr": 8091,
      "Ġtryin": 8092,
      "shield": 8093,
      "ontroll": 8094,
      "mean": 8095,
      "pediment": 8096,
      "Ġwaf": 8097,
      "obbly": 8098,
      "cycle": 8099,
      "Ġdrain": 8100,
      "Ġdrained": 8101,
      "Ġdrinking": 8102,
      "Ġlittered": 8103,
      "Ġneeding": 8104,
      "ĠMoodys": 8105,
      "Ġdarker": 8106,
      "Ġdarkened": 8107,
      "climb": 8108,
      "cloth": 8109,
      "Ġbitten": 8110,
      "until": 8111,
      "Ġattitude": 8112,
      "Ġdescri": 8113,
      "Ġcrisp": 8114,
      "Ġcrashing": 8115,
      "Ġcrates": 8116,
      "Ġcrims": 8117,
      "Ġnighttime": 8118,
      "Ġamuse": 8119,
      "Ġcarp": 8120,
      "Ġcares": 8121,
      "Ġblackm": 8122,
      "Ġelb": 8123,
      "Ġcontorted": 8124,
      "Ġgreater": 8125,
      "Ġfewer": 8126,
      "Ġowners": 8127,
      "Ġfireworks": 8128,
      "Ġsets": 8129,
      "Ġsettle": 8130,
      "Ġsnoo": 8131,
      "Ġlighter": 8132,
      "Ġsquash": 8133,
      "igging": 8134,
      "Ġparlor": 8135,
      "Ġpron": 8136,
      "Ġimpris": 8137,
      "oothed": 8138,
      "Ġuntied": 8139,
      "Ġminiature": 8140,
      "blank": 8141,
      "Ġyells": 8142,
      "Ġcrowds": 8143,
      "Ġsorted": 8144,
      "Ġperch": 8145,
      "Ġmostly": 8146,
      "Ġresting": 8147,
      "Ġscarves": 8148,
      "Ġboarhound": 8149,
      "Ġtrem": 8150,
      "deep": 8151,
      "ĠArt": 8152,
      "ĠThink": 8153,
      "ĠThose": 8154,
      "Ġbookshe": 8155,
      "Ġmovements": 8156,
      "Ġwatery": 8157,
      "Ġtroub": 8158,
      "Ġvisiting": 8159,
      "HAM": 8160,
      "letter": 8161,
      "Ġresist": 8162,
      "Ġheartily": 8163,
      "force": 8164,
      "Ġedging": 8165,
      "Ġmonstrous": 8166,
      "Ask": 8167,
      "Ġrattled": 8168,
      "Ġreporter": 8169,
      "Ġrepresent": 8170,
      "Ġsquealing": 8171,
      "noticed": 8172,
      "Ġdirected": 8173,
      "Stay": 8174,
      "Stupefy": 8175,
      "Ġcloset": 8176,
      "Ġdrawers": 8177,
      "Ġdrawling": 8178,
      "ORD": 8179,
      "ippet": 8180,
      "anyone": 8181,
      "anyway": 8182,
      "Ġrefuse": 8183,
      "Ġrefusing": 8184,
      "Ġdelic": 8185,
      "Ġdangerously": 8186,
      "ONE": 8187,
      "Ġforms": 8188,
      "venture": 8189,
      "spread": 8190,
      "renched": 8191,
      "finished": 8192,
      "Ġbarrel": 8193,
      "Ġuncontroll": 8194,
      "Ġeasier": 8195,
      "Ġstrolled": 8196,
      "Ġtentatively": 8197,
      "Ġmasters": 8198,
      "common": 8199,
      "Ġdreamed": 8200,
      "Ġcoats": 8201,
      "Ġtown": 8202,
      "Ġgrapefr": 8203,
      "Ġcolors": 8204,
      "Ġpatches": 8205,
      "Ġportraits": 8206,
      "Ġvegetable": 8207,
      "Ġshallow": 8208,
      "Ġconfident": 8209,
      "ĠShrieking": 8210,
      "Ġrubber": 8211,
      "LEY": 8212,
      "gray": 8213,
      "Madame": 8214,
      "parents": 8215,
      "Ġforgetting": 8216,
      "ĠYOUR": 8217,
      "ĠBulstrode": 8218,
      "Ġpolished": 8219,
      "Ġinnoc": 8220,
      "Ġtightened": 8221,
      "Ġtips": 8222,
      "Ġmidst": 8223,
      "Ġenjoyable": 8224,
      "Ġadvancing": 8225,
      "Ġadvantage": 8226,
      "ATE": 8227,
      "Ġhippogriffs": 8228,
      "Ġtrusts": 8229,
      "Ġtrusted": 8230,
      "Ġbravery": 8231,
      "Ġphotogra": 8232,
      "Ġmountains": 8233,
      "Ġstruggle": 8234,
      "Ġcentury": 8235,
      "ulture": 8236,
      "Ġpotions": 8237,
      "ĠWizards": 8238,
      "Ġhighest": 8239,
      "Ġpreparing": 8240,
      "Ġdustb": 8241,
      "point": 8242,
      "Ġlimping": 8243,
      "Ġtricky": 8244,
      "Ġconcentrating": 8245,
      "balls": 8246,
      "Ġhooted": 8247,
      "Ġirritable": 8248,
      "Slytherins": 8249,
      "rusted": 8250,
      "ĠUnfogging": 8251,
      "Ġpinstriped": 8252,
      "Ġcrocod": 8253,
      "ĠApparently": 8254,
      "Ġdetermination": 8255,
      "Ġbranch": 8256,
      "Ġexplode": 8257,
      "Ġjeans": 8258,
      "Ġgreeted": 8259,
      "Ġgiggling": 8260,
      "Ġbeetles": 8261,
      "Ġproblems": 8262,
      "Ġbabble": 8263,
      "ĠTHIS": 8264,
      "IDD": 8265,
      "Ġmurmur": 8266,
      "Ġpressure": 8267,
      "ĠBole": 8268,
      "Ġlovely": 8269,
      "Ġgathering": 8270,
      "Ġrevealed": 8271,
      "Ġwearily": 8272,
      "Ġflooded": 8273,
      "Ġblurted": 8274,
      "Ġsuffering": 8275,
      "Ġenclosed": 8276,
      "AAAA": 8277,
      "afternoon": 8278,
      "ports": 8279,
      "Ġreplaced": 8280,
      "ĠFebruary": 8281,
      "Ġcelebrating": 8282,
      "imitrov": 8283,
      "Ġcharms": 8284,
      "Ġembarrassing": 8285,
      "better": 8286,
      "Ġbustling": 8287,
      "Ġboomed": 8288,
      "Ġcasual": 8289,
      "Ġpillowcase": 8290,
      "Ġdodged": 8291,
      "Ġunfolded": 8292,
      "Ġenchant": 8293,
      "Ġincredible": 8294,
      "fortunately": 8295,
      "Ġviolent": 8296,
      "Ġbucket": 8297,
      "Ġstretching": 8298,
      "ĠMacmillan": 8299,
      "Ġneatly": 8300,
      "Ġdefend": 8301,
      "dementors": 8302,
      "Ġseparated": 8303,
      "Ġvaluable": 8304,
      "Ġdecorated": 8305,
      "dragon": 8306,
      "passage": 8307,
      "ĠRegul": 8308,
      "Ġconceal": 8309,
      "Ġconcealed": 8310,
      "Ġastonishment": 8311,
      "Granger": 8312,
      "holding": 8313,
      "window": 8314,
      "Ġdevoted": 8315,
      "Ġearnestly": 8316,
      "Ġdisturb": 8317,
      "Ġhexes": 8318,
      "Ġstarving": 8319,
      "Ġwhimpering": 8320,
      "Ġsmoking": 8321,
      "Ġsmoky": 8322,
      "Oooh": 8323,
      "Ġunlikely": 8324,
      "Ġarrangements": 8325,
      "called": 8326,
      "nervous": 8327,
      "Ġsuperb": 8328,
      "Ġcooking": 8329,
      "Ġmildly": 8330,
      "ĠSquib": 8331,
      "Ġresembled": 8332,
      "Ġblonde": 8333,
      "Ġscraping": 8334,
      "ietly": 8335,
      "Ġhuddled": 8336,
      "Ġenemies": 8337,
      "Ġgrasped": 8338,
      "Ġrelaxed": 8339,
      "houet": 8340,
      "joined": 8341,
      "ĠMerlin": 8342,
      "Ġoutraged": 8343,
      "Ġimprove": 8344,
      "ĠStudies": 8345,
      "Ġcandlelight": 8346,
      "Halloween": 8347,
      "Ġtoffees": 8348,
      "Ġvivid": 8349,
      "ĠKnuts": 8350,
      "Ġsuspended": 8351,
      "week": 8352,
      "Ġcottage": 8353,
      "ĠMonster": 8354,
      "ĠPoltergeist": 8355,
      "ĠWITH": 8356,
      "Ġneighbors": 8357,
      "ĠGuide": 8358,
      "quickly": 8359,
      "Ġvenom": 8360,
      "Ġdestroyed": 8361,
      "Ġsavagely": 8362,
      "Merry": 8363,
      "recogn": 8364,
      "Ġmoldy": 8365,
      "Ġdissolved": 8366,
      "important": 8367,
      "Ġreluctantly": 8368,
      "ĠTHIRTY": 8369,
      "Ġdemonstr": 8370,
      "corner": 8371,
      "ubeus": 8372,
      "Ġhyster": 8373,
      "Ġculpr": 8374,
      "ĠCannons": 8375,
      "Ġgovernors": 8376,
      "Ġsplendid": 8377,
      "Ġremotely": 8378,
      "Ġreferee": 8379,
      "Ġelectric": 8380,
      "Ġsandwiches": 8381,
      "Ġdazzling": 8382,
      "Ġdrills": 8383,
      "Ġofficial": 8384,
      "Ġsurveyed": 8385,
      "Ġcurrently": 8386,
      "Ġlabeled": 8387,
      "ilibuster": 8388,
      "embrall": 8389,
      "Ġgoblets": 8390,
      "Ġcrimson": 8391,
      "Ġgrapefruit": 8392,
      "Ġcrocodile": 8393,
      "ĠRegulation": 8394,
      "'!\"": 8395,
      "22": 8396,
      "28": 8397,
      "AD": 8398,
      "AY": 8399,
      "Brilliant": 8400,
      "Che": 8401,
      "Dis": 8402,
      "Diggory": 8403,
      "Father": 8404,
      "Gring": 8405,
      "GIC": 8406,
      "HO": 8407,
      "Help": 8408,
      "Kn": 8409,
      "London": 8410,
      "Lucky": 8411,
      "May": 8412,
      "Marge": 8413,
      "Morning": 8414,
      "Oo": 8415,
      "Put": 8416,
      "Pig": 8417,
      "SH": 8418,
      "Sc": 8419,
      "Say": 8420,
      "Seamus": 8421,
      "Under": 8422,
      "Wouldn": 8423,
      "aah": 8424,
      "bur": 8425,
      "centr": 8426,
      "chers": 8427,
      "del": 8428,
      "draw": 8429,
      "dinner": 8430,
      "eag": 8431,
      "eff": 8432,
      "fat": 8433,
      "foll": 8434,
      "follow": 8435,
      "furiously": 8436,
      "gra": 8437,
      "iated": 8438,
      "kill": 8439,
      "little": 8440,
      "lmouth": 8441,
      "laugh": 8442,
      "met": 8443,
      "muttered": 8444,
      "oles": 8445,
      "oise": 8446,
      "pin": 8447,
      "pri": 8448,
      "pink": 8449,
      "pale": 8450,
      "run": 8451,
      "running": 8452,
      "sa": 8453,
      "sn": 8454,
      "ses": 8455,
      "sun": 8456,
      "sus": 8457,
      "slowly": 8458,
      "slipped": 8459,
      "tight": 8460,
      "taking": 8461,
      "uence": 8462,
      "ware": 8463,
      "warn": 8464,
      "wrong": 8465,
      "walked": 8466,
      "yll": 8467,
      "years": 8468,
      "zil": 8469,
      "Ġ0": 8470,
      "Ġtit": 8471,
      "Ġtugged": 8472,
      "Ġtale": 8473,
      "Ġtakin": 8474,
      "Ġtangle": 8475,
      "hem": 8476,
      "hew": 8477,
      "Ġaching": 8478,
      "Ġsunny": 8479,
      "Ġsummon": 8480,
      "Ġskelet": 8481,
      "Ġwan": 8482,
      "Ġwiz": 8483,
      "Ġwither": 8484,
      "Ġwomen": 8485,
      "eds": 8486,
      "erted": 8487,
      "erving": 8488,
      "erence": 8489,
      "ercise": 8490,
      "erworm": 8491,
      "Ġhump": 8492,
      "Ġhinky": 8493,
      "ingers": 8494,
      "Ġbon": 8495,
      "Ġbould": 8496,
      "Ġbore": 8497,
      "Ġboot": 8498,
      "Ġbony": 8499,
      "Ġbanshee": 8500,
      "rep": 8501,
      "reached": 8502,
      "reason": 8503,
      "Ġfate": 8504,
      "Ġfiled": 8505,
      "Ġfitted": 8506,
      "Ġtoy": 8507,
      "Ġtoss": 8508,
      "aten": 8509,
      "ishes": 8510,
      "ĠHor": 8511,
      "ĠHand": 8512,
      "ĠHAR": 8513,
      "Ġcabb": 8514,
      "Ġcowering": 8515,
      "Ġcrawled": 8516,
      "llow": 8517,
      "idents": 8518,
      "enormous": 8519,
      "Ġder": 8520,
      "Ġdent": 8521,
      "Ġdug": 8522,
      "Ġdaughter": 8523,
      "Ġdagg": 8524,
      "Ġming": 8525,
      "Ġmull": 8526,
      "Ġmercy": 8527,
      "Ġmile": 8528,
      "Ġmixed": 8529,
      "Ġthrill": 8530,
      "Ġthumping": 8531,
      "Ġthresh": 8532,
      "Ġlimit": 8533,
      "Ġloop": 8534,
      "Ġpace": 8535,
      "Ġpimp": 8536,
      "Ġpity": 8537,
      "Ġpatched": 8538,
      "Ġpork": 8539,
      "Ġporing": 8540,
      "Ġpomp": 8541,
      "Ġpavement": 8542,
      "adition": 8543,
      "Ġgun": 8544,
      "Ġgaps": 8545,
      "Ġgates": 8546,
      "ancy": 8547,
      "Ġinqu": 8548,
      "Ġintense": 8549,
      "Ġsallow": 8550,
      "Ġnurs": 8551,
      "Ġwasting": 8552,
      "Ġbeads": 8553,
      "cken": 8554,
      "Ġsting": 8555,
      "Ġstee": 8556,
      "Ġstones": 8557,
      "start": 8558,
      "step": 8559,
      "stronomy": 8560,
      "ĠIS": 8561,
      "outside": 8562,
      "uted": 8563,
      "ĠMa": 8564,
      "ĠMoony": 8565,
      "seven": 8566,
      "entered": 8567,
      "entions": 8568,
      "Ġwhisk": 8569,
      "ago": 8570,
      "roach": 8571,
      "rogs": 8572,
      "alt": 8573,
      "ĠSe": 8574,
      "ĠSection": 8575,
      "ĠSeven": 8576,
      "ĠSisters": 8577,
      "ĠSports": 8578,
      "kew": 8579,
      "ĠRE": 8580,
      "ĠRR": 8581,
      "ĠRoman": 8582,
      "Ġ.'": 8583,
      "Ġren": 8584,
      "Ġreaction": 8585,
      "ĠDI": 8586,
      "ĠDis": 8587,
      "ĠDangerous": 8588,
      "Ġseize": 8589,
      "Ġsealed": 8590,
      "ppy": 8591,
      "pperm": 8592,
      "herited": 8593,
      "Ġshower": 8594,
      "Ġshattered": 8595,
      "Ġshuffled": 8596,
      "Ġshrewd": 8597,
      "Ġrare": 8598,
      "Ġrotting": 8599,
      "ĠWest": 8600,
      "Ġkidding": 8601,
      "erely": 8602,
      "Ġfrantic": 8603,
      "ĠCream": 8604,
      "indly": 8605,
      "unes": 8606,
      "ĠAcc": 8607,
      "usk": 8608,
      "akers": 8609,
      "ems": 8610,
      "icted": 8611,
      "ĠFR": 8612,
      "ĠFort": 8613,
      "ĠFOUR": 8614,
      "ĠFilibuster": 8615,
      "ĠFrogs": 8616,
      "Ġgolf": 8617,
      "Ġmend": 8618,
      "Ġmeal": 8619,
      "ustr": 8620,
      "astor": 8621,
      "acts": 8622,
      "Ġjam": 8623,
      "Ġjets": 8624,
      "ĠGames": 8625,
      "Ġweap": 8626,
      "quoise": 8627,
      "Ġshell": 8628,
      "Ġsheet": 8629,
      "umber": 8630,
      "ĠLove": 8631,
      "ĠTHAT": 8632,
      "ĠTrevor": 8633,
      "rait": 8634,
      "rapping": 8635,
      "razil": 8636,
      "Ġvaul": 8637,
      "Ġtheirs": 8638,
      "Ġovergrown": 8639,
      "Ġovercoat": 8640,
      "izzy": 8641,
      "venge": 8642,
      "bbed": 8643,
      "Ġspying": 8644,
      "Ġsputtered": 8645,
      "Ġchain": 8646,
      "ĠNagini": 8647,
      "ĠWeatherby": 8648,
      "Ġworm": 8649,
      "oger": 8650,
      "Ġflushed": 8651,
      "Ġflanked": 8652,
      "Ġblot": 8653,
      "Ġbloke": 8654,
      "estry": 8655,
      "Ġunusually": 8656,
      "Ġslits": 8657,
      "Ġplanned": 8658,
      "Ġscur": 8659,
      "Ġscraw": 8660,
      "Ġscored": 8661,
      "Ġscattered": 8662,
      "Ġheadmistress": 8663,
      "ocks": 8664,
      "ocket": 8665,
      "ockturn": 8666,
      "ounding": 8667,
      "Ġcomin": 8668,
      "olia": 8669,
      "Ġsmart": 8670,
      "Ġsmiles": 8671,
      "rowed": 8672,
      "Ġglowering": 8673,
      "ometimes": 8674,
      "others": 8675,
      "Ġtrash": 8676,
      "ĠOR": 8677,
      "Ġwilling": 8678,
      "Ġensl": 8679,
      "innet": 8680,
      "Ġmanner": 8681,
      "Ġmanaging": 8682,
      "Ġswing": 8683,
      "Ġswig": 8684,
      "Ġsworn": 8685,
      "Ġswoll": 8686,
      "Ġswelling": 8687,
      "Ġswift": 8688,
      "Ġswooping": 8689,
      "Ġswerved": 8690,
      "Ġgrat": 8691,
      "Ġlongingly": 8692,
      "Ġmoan": 8693,
      "Ġnevertheless": 8694,
      "berry": 8695,
      "Ġspec": 8696,
      "Ġspending": 8697,
      "Ġevenings": 8698,
      "odged": 8699,
      "ĠChudley": 8700,
      "Ġwhereabout": 8701,
      "Ġdistingu": 8702,
      "Ġbetting": 8703,
      "Ġunderage": 8704,
      "shaking": 8705,
      "ĠQuill": 8706,
      "Ġappeal": 8707,
      "obberworm": 8708,
      "Ġtablecloth": 8709,
      "Ġputs": 8710,
      "ploding": 8711,
      "While": 8712,
      "Ġprecious": 8713,
      "Ġentr": 8714,
      "Ġendless": 8715,
      "Ġstrangled": 8716,
      "Ġcheered": 8717,
      "Ġcheery": 8718,
      "Ġcheeks": 8719,
      "Ġarmchairs": 8720,
      "ampered": 8721,
      "Ġproved": 8722,
      "Ġprodded": 8723,
      "Ġprodding": 8724,
      "Ġbitter": 8725,
      "Ġfeels": 8726,
      "ountain": 8727,
      "Ġsupporting": 8728,
      "untled": 8729,
      "Ġwrinkled": 8730,
      "Ġcrime": 8731,
      "Ġcrunching": 8732,
      "Ġskidding": 8733,
      "Ġquicker": 8734,
      "Ġamid": 8735,
      "Ġpassages": 8736,
      "Ġgives": 8737,
      "Ġblackness": 8738,
      "Ġcontrolled": 8739,
      "Ġfloorboard": 8740,
      "Ġsnatching": 8741,
      "Ġhopped": 8742,
      "Ġhoisted": 8743,
      "Ġhovered": 8744,
      "Ġlighting": 8745,
      "ĠJuly": 8746,
      "Ġshouts": 8747,
      "Ġjoining": 8748,
      "library": 8749,
      "ungb": 8750,
      "ĠInc": 8751,
      "Ġours": 8752,
      "Ġmouthful": 8753,
      "ĠYer": 8754,
      "ĠYule": 8755,
      "Ġsteep": 8756,
      "Ġstealing": 8757,
      "Ġrestrain": 8758,
      "Ġfriendship": 8759,
      "Ġscars": 8760,
      "Ġfourteen": 8761,
      "Ġparted": 8762,
      "Ġexcuses": 8763,
      "Ġbelieving": 8764,
      "icult": 8765,
      "Ġtreasure": 8766,
      "Ġhoriz": 8767,
      "death": 8768,
      "Ġcurling": 8769,
      "ĠThought": 8770,
      "Ġinterf": 8771,
      "Ġdeepest": 8772,
      "Ġredd": 8773,
      "Ġrug": 8774,
      "Those": 8775,
      "rifle": 8776,
      "rific": 8777,
      "ĠAnother": 8778,
      "Ġemptying": 8779,
      "Ġdisappearing": 8780,
      "ummy": 8781,
      "Ġclearer": 8782,
      "Ġhates": 8783,
      "Ġobst": 8784,
      "Ġcups": 8785,
      "ensive": 8786,
      "Ġremembering": 8787,
      "racting": 8788,
      "Ġsweep": 8789,
      "Ġsweating": 8790,
      "Ġheavier": 8791,
      "Ġrecent": 8792,
      "Ġrecall": 8793,
      "Ġrecover": 8794,
      "vels": 8795,
      "Ġcomput": 8796,
      "Ġanswering": 8797,
      "Ġtrial": 8798,
      "Ġtripped": 8799,
      "Ġtripping": 8800,
      "INE": 8801,
      "Ġfreely": 8802,
      "Ġcovering": 8803,
      "auldrons": 8804,
      "Ġloss": 8805,
      "Ġstreaking": 8806,
      "Ġaccusing": 8807,
      "Ġaccount": 8808,
      "Ġexceptionally": 8809,
      "Ġpacking": 8810,
      "awny": 8811,
      "Bludg": 8812,
      "expect": 8813,
      "express": 8814,
      "ORT": 8815,
      "ĠClass": 8816,
      "Ġtraveling": 8817,
      "Ġforming": 8818,
      "scr": 8819,
      "scream": 8820,
      "imagine": 8821,
      "ĠAlban": 8822,
      "Ġdetentions": 8823,
      "Ġsplashing": 8824,
      "Ġzoo": 8825,
      "Ġzero": 8826,
      "Ġferoc": 8827,
      "Ġscrubb": 8828,
      "finitely": 8829,
      "Ġburnt": 8830,
      "Ġexpecto": 8831,
      "Ġuncon": 8832,
      "Shall": 8833,
      "Ġwarningly": 8834,
      "Ġstroke": 8835,
      "Ġstroked": 8836,
      "Ġcreak": 8837,
      "Ġcreeping": 8838,
      "Ġvanishing": 8839,
      "Ġdreaming": 8840,
      "Ġstrongly": 8841,
      "Ġassume": 8842,
      "Ġtransparent": 8843,
      "Ġtransfixed": 8844,
      "Ġintrud": 8845,
      "Ġpatted": 8846,
      "Ġpanicked": 8847,
      "ossibly": 8848,
      "ritten": 8849,
      "Ġvisitors": 8850,
      "Ġincident": 8851,
      "Ġanxiety": 8852,
      "Ġdealing": 8853,
      "Ġshrieking": 8854,
      "Ġimportantly": 8855,
      "irmed": 8856,
      "Ġiron": 8857,
      "Ġpolite": 8858,
      "Ġfingerna": 8859,
      "Ġinner": 8860,
      "Ġcloudy": 8861,
      "Ġquestioning": 8862,
      "Ġtiptoe": 8863,
      "Ġpunished": 8864,
      "Ġshrink": 8865,
      "Ġshrunk": 8866,
      "ATION": 8867,
      "Ġbowler": 8868,
      "Ġgleamed": 8869,
      "strictor": 8870,
      "Ġvillagers": 8871,
      "Weasleys": 8872,
      "figure": 8873,
      "Ġdefinite": 8874,
      "Ġsmelled": 8875,
      "Ġcircling": 8876,
      "Ġdriven": 8877,
      "Ġplatforms": 8878,
      "Ġcentaur": 8879,
      "Ġtemple": 8880,
      "Ġtempor": 8881,
      "Ġcopies": 8882,
      "Ġmassaging": 8883,
      "Ġservice": 8884,
      "Ġbats": 8885,
      "Arry": 8886,
      "whole": 8887,
      "Ġlurched": 8888,
      "OOL": 8889,
      "OOM": 8890,
      "pointed": 8891,
      "Ġconcentration": 8892,
      "Ġconcentrated": 8893,
      "VES": 8894,
      "Ġhooves": 8895,
      "Ġcomplaining": 8896,
      "probably": 8897,
      "Ġmuscles": 8898,
      "Ġpumpkins": 8899,
      "Ġbrandished": 8900,
      "ascots": 8901,
      "Ġpermitted": 8902,
      "Ġgroan": 8903,
      "Anything": 8904,
      "Ġscrambling": 8905,
      "Ġsensible": 8906,
      "Ġthunderstruck": 8907,
      "secret": 8908,
      "ĠRemember": 8909,
      "Ġconnection": 8910,
      "happened": 8911,
      "Ġgiggles": 8912,
      "Ġdisappointment": 8913,
      "Flitwick": 8914,
      "Ġturkey": 8915,
      "Ġtreating": 8916,
      "Ġvio": 8917,
      "Ġslightest": 8918,
      "Ġdisgusted": 8919,
      "Ġdelightedly": 8920,
      "Ġladen": 8921,
      "Ġrumble": 8922,
      "Ġfaintest": 8923,
      "Ġrevealing": 8924,
      "Ġtapestry": 8925,
      "Ġproudly": 8926,
      "Ġessential": 8927,
      "Ġreplied": 8928,
      "Ġdisappearance": 8929,
      "ĠApparating": 8930,
      "Ġfancy": 8931,
      "Ġcursed": 8932,
      "Ġchessmen": 8933,
      "Ġconsiderable": 8934,
      "Ġconsiderably": 8935,
      "Firenze": 8936,
      "Meanwhile": 8937,
      "Ġdamn": 8938,
      "Ġdodging": 8939,
      "Ġunwrapped": 8940,
      "Ġgrandfather": 8941,
      "Ġsqueezing": 8942,
      "Ġdefeat": 8943,
      "classroom": 8944,
      "breaking": 8945,
      "Ġdistractedly": 8946,
      "ĠPortkeys": 8947,
      "OME": 8948,
      "Ġprotected": 8949,
      "darkness": 8950,
      "locks": 8951,
      "Ġbiggest": 8952,
      "Ġbriefly": 8953,
      "Ġpuffed": 8954,
      "Ġantid": 8955,
      "Headless": 8956,
      "ĠParselmouth": 8957,
      "Ġattempts": 8958,
      "Magical": 8959,
      "friends": 8960,
      "Ġsunken": 8961,
      "Ġbullet": 8962,
      "ĠfiI": 8963,
      "Ġundoubtedly": 8964,
      "ĠAnimagi": 8965,
      "Ġdelivered": 8966,
      "ĠDisapparate": 8967,
      "snake": 8968,
      "Ġcorrect": 8969,
      "Ġpillows": 8970,
      "ĠSpinnet": 8971,
      "Ġdisapproving": 8972,
      "guard": 8973,
      "ski": 8974,
      "Ġwolf": 8975,
      "Ġnifflers": 8976,
      "Ġstirring": 8977,
      "Ġgrumpy": 8978,
      "Ġacceler": 8979,
      "Ġtorture": 8980,
      "Ġhuddle": 8981,
      "iscated": 8982,
      "Ġcapable": 8983,
      "Ġhealthy": 8984,
      "Ġshifting": 8985,
      "Ġunlocked": 8986,
      "Ġcondition": 8987,
      "Ġenemy": 8988,
      "Ġprovided": 8989,
      "contin": 8990,
      "trees": 8991,
      "Ġgesturing": 8992,
      "ĠSCOR": 8993,
      "Ġexasperated": 8994,
      "Ġmystery": 8995,
      "Ġapprehensive": 8996,
      "Precisely": 8997,
      "Silence": 8998,
      "Ġmaliciously": 8999,
      "Ġthumbs": 9000,
      "Ġsalam": 9001,
      "Ġequal": 9002,
      "Ġhammering": 9003,
      "Ġscuttled": 9004,
      "Ġconjure": 9005,
      "Ġgloves": 9006,
      "Ġencour": 9007,
      "Ġunmistakably": 9008,
      "hundred": 9009,
      "Ġcapture": 9010,
      "Ġlanguage": 9011,
      "Ġinfluence": 9012,
      "Ġstamping": 9013,
      "Ġjealous": 9014,
      "direction": 9015,
      "marble": 9016,
      "Ġsoup": 9017,
      "Ġsarcastically": 9018,
      "Ġwrestling": 9019,
      "Ġcongratul": 9020,
      "Ġflowers": 9021,
      "Ġunblinking": 9022,
      "Ġperfumed": 9023,
      "television": 9024,
      "HARRY": 9025,
      "excited": 9026,
      "believable": 9027,
      "Lovely": 9028,
      "bathroom": 9029,
      "Ġmental": 9030,
      "Ġmotorcycle": 9031,
      "Ġanticip": 9032,
      "Ġabandoned": 9033,
      "Ġorphanage": 9034,
      "Ġswiveled": 9035,
      "Ġactivity": 9036,
      "Macnair": 9037,
      "XPEC": 9038,
      "broken": 9039,
      "subject": 9040,
      "Ġimage": 9041,
      "Ġlingered": 9042,
      "Ġelder": 9043,
      "ĠSpecial": 9044,
      "ĠControl": 9045,
      "Ġchimney": 9046,
      "Ġinvestigate": 9047,
      "Ġmalevol": 9048,
      "Ġpelted": 9049,
      "ĠPATRON": 9050,
      "Ġcanceled": 9051,
      "Ġdisgruntled": 9052,
      "Ġsnoozing": 9053,
      "ĠArtif": 9054,
      "Ġbookshelves": 9055,
      "Ġuncontrollably": 9056,
      "Ġphotographer": 9057,
      "Ġdustbins": 9058,
      "Ġculprit": 9059,
      "Gringotts": 9060,
      "Ġhinkyp": 9061,
      "ĠHARRY": 9062,
      "Ġthreshold": 9063,
      "Ġsteely": 9064,
      "ĠRomania": 9065,
      "Ġswollen": 9066,
      "Ġwhereabouts": 9067,
      "',\"": 9068,
      "24": 9069,
      "33": 9070,
      "AW": 9071,
      "App": 9072,
      "Abs": 9073,
      "Amos": 9074,
      "Accio": 9075,
      "Boys": 9076,
      "Crack": 9077,
      "Divination": 9078,
      "EAR": 9079,
      "EXPEC": 9080,
      "Fang": 9081,
      "Funny": 9082,
      "Follow": 9083,
      "GE": 9084,
      "Hope": 9085,
      "HUFF": 9086,
      "Jus": 9087,
      "James": 9088,
      "Jordan": 9089,
      "Lord": 9090,
      "Ladies": 9091,
      "Mom": 9092,
      "More": 9093,
      "Make": 9094,
      "Moaning": 9095,
      "Nah": 9096,
      "Ob": 9097,
      "Open": 9098,
      "Pat": 9099,
      "Pen": 9100,
      "PUFF": 9101,
      "RR": 9102,
      "Rel": 9103,
      "Rubb": 9104,
      "Slowly": 9105,
      "Tom": 9106,
      "Told": 9107,
      "Trying": 9108,
      "UT": 9109,
      "UU": 9110,
      "WE": 9111,
      "Wand": 9112,
      "WHAT": 9113,
      "Yep": 9114,
      "aited": 9115,
      "ailed": 9116,
      "bound": 9117,
      "bush": 9118,
      "broomsticks": 9119,
      "cst": 9120,
      "cher": 9121,
      "cand": 9122,
      "cil": 9123,
      "catch": 9124,
      "coll": 9125,
      "calm": 9126,
      "curse": 9127,
      "cule": 9128,
      "di": 9129,
      "dy": 9130,
      "dear": 9131,
      "dist": 9132,
      "dress": 9133,
      "fly": 9134,
      "fam": 9135,
      "fish": 9136,
      "faces": 9137,
      "famous": 9138,
      "footed": 9139,
      "hum": 9140,
      "hone": 9141,
      "hab": 9142,
      "hung": 9143,
      "hidden": 9144,
      "hope": 9145,
      "iac": 9146,
      "kers": 9147,
      "knot": 9148,
      "live": 9149,
      "lish": 9150,
      "mid": 9151,
      "mates": 9152,
      "nosed": 9153,
      "oe": 9154,
      "oid": 9155,
      "pun": 9156,
      "pick": 9157,
      "pos": 9158,
      "pret": 9159,
      "pushed": 9160,
      "piece": 9161,
      "ran": 9162,
      "ram": 9163,
      "rather": 9164,
      "rashing": 9165,
      "sy": 9166,
      "sick": 9167,
      "size": 9168,
      "saying": 9169,
      "tightly": 9170,
      "talking": 9171,
      "uber": 9172,
      "ules": 9173,
      "uits": 9174,
      "vas": 9175,
      "vest": 9176,
      "wer": 9177,
      "wings": 9178,
      "walking": 9179,
      "wondering": 9180,
      "yellow": 9181,
      "zo": 9182,
      "zes": 9183,
      "Ġ5": 9184,
      "Ġric": 9185,
      "Ġounce": 9186,
      "ĠQU": 9187,
      "Ġversion": 9188,
      "Ġtack": 9189,
      "Ġtum": 9190,
      "Ġtant": 9191,
      "Ġtaun": 9192,
      "Ġtucking": 9193,
      "Ġtethered": 9194,
      "Ġtawny": 9195,
      "hery": 9196,
      "held": 9197,
      "Ġaud": 9198,
      "Ġachie": 9199,
      "inous": 9200,
      "inth": 9201,
      "Ġsin": 9202,
      "Ġsly": 9203,
      "Ġsore": 9204,
[...]
